/* Copyright 2019 The TensorFlow Authors. All Rights Reserved.

Licensed under the Apache License, Version 2.0 (the "License");
you may not use this file except in compliance with the License.
You may obtain a copy of the License at

    http://www.apache.org/licenses/LICENSE-2.0

Unless required by applicable law or agreed to in writing, software
distributed under the License is distributed on an "AS IS" BASIS,
WITHOUT WARRANTIES OR CONDITIONS OF ANY KIND, either express or implied.
See the License for the specific language governing permissions and
limitations under the License.
==============================================================================*/

// Automatically created from a TensorFlow Lite flatbuffer using the command:
// xxd -i magic_wand_model.tflite > magic_wand_model_data.cc
// See the README for a full description of the creation process.

#include "magic_wand_model_data.h"

// We need to keep the data array aligned on some architectures.
#ifdef __has_attribute
#define HAVE_ATTRIBUTE(x) __has_attribute(x)
#else
#define HAVE_ATTRIBUTE(x) 0
#endif
#if HAVE_ATTRIBUTE(aligned) || (defined(__GNUC__) && !defined(__clang__))
#define DATA_ALIGN_ATTRIBUTE __attribute__((aligned(4)))
#else
#define DATA_ALIGN_ATTRIBUTE
#endif
const unsigned char g_magic_wand_model_data[] DATA_ALIGN_ATTRIBUTE = {
  0x1c, 0x00, 0x00, 0x00, 0x54, 0x46, 0x4c, 0x33, 0x14, 0x00, 0x20, 0x00,
  0x1c, 0x00, 0x18, 0x00, 0x14, 0x00, 0x10, 0x00, 0x0c, 0x00, 0x00, 0x00,
  0x08, 0x00, 0x04, 0x00, 0x14, 0x00, 0x00, 0x00, 0x1c, 0x00, 0x00, 0x00,
  0x88, 0x00, 0x00, 0x00, 0xe0, 0x00, 0x00, 0x00, 0x7c, 0x45, 0x00, 0x00,
  0x8c, 0x45, 0x00, 0x00, 0xe8, 0x4f, 0x00, 0x00, 0x03, 0x00, 0x00, 0x00,
  0x01, 0x00, 0x00, 0x00, 0x04, 0x00, 0x00, 0x00, 0x7a, 0xb9, 0xff, 0xff,
  0x0c, 0x00, 0x00, 0x00, 0x1c, 0x00, 0x00, 0x00, 0x38, 0x00, 0x00, 0x00,
  0x0f, 0x00, 0x00, 0x00, 0x73, 0x65, 0x72, 0x76, 0x69, 0x6e, 0x67, 0x5f,
  0x64, 0x65, 0x66, 0x61, 0x75, 0x6c, 0x74, 0x00, 0x01, 0x00, 0x00, 0x00,
  0x04, 0x00, 0x00, 0x00, 0x94, 0xff, 0xff, 0xff, 0x11, 0x00, 0x00, 0x00,
  0x04, 0x00, 0x00, 0x00, 0x07, 0x00, 0x00, 0x00, 0x64, 0x65, 0x6e, 0x73,
  0x65, 0x5f, 0x31, 0x00, 0x01, 0x00, 0x00, 0x00, 0x04, 0x00, 0x00, 0x00,
  0x5a, 0xba, 0xff, 0xff, 0x04, 0x00, 0x00, 0x00, 0x0c, 0x00, 0x00, 0x00,
  0x63, 0x6f, 0x6e, 0x76, 0x32, 0x64, 0x5f, 0x69, 0x6e, 0x70, 0x75, 0x74,
  0x00, 0x00, 0x00, 0x00, 0x02, 0x00, 0x00, 0x00, 0x34, 0x00, 0x00, 0x00,
  0x04, 0x00, 0x00, 0x00, 0xdc, 0xff, 0xff, 0xff, 0x14, 0x00, 0x00, 0x00,
  0x04, 0x00, 0x00, 0x00, 0x13, 0x00, 0x00, 0x00, 0x43, 0x4f, 0x4e, 0x56,
  0x45, 0x52, 0x53, 0x49, 0x4f, 0x4e, 0x5f, 0x4d, 0x45, 0x54, 0x41, 0x44,
  0x41, 0x54, 0x41, 0x00, 0x08, 0x00, 0x0c, 0x00, 0x08, 0x00, 0x04, 0x00,
  0x08, 0x00, 0x00, 0x00, 0x13, 0x00, 0x00, 0x00, 0x04, 0x00, 0x00, 0x00,
  0x13, 0x00, 0x00, 0x00, 0x6d, 0x69, 0x6e, 0x5f, 0x72, 0x75, 0x6e, 0x74,
  0x69, 0x6d, 0x65, 0x5f, 0x76, 0x65, 0x72, 0x73, 0x69, 0x6f, 0x6e, 0x00,
  0x15, 0x00, 0x00, 0x00, 0x98, 0x44, 0x00, 0x00, 0x90, 0x44, 0x00, 0x00,
  0x60, 0x44, 0x00, 0x00, 0x10, 0x44, 0x00, 0x00, 0x80, 0x42, 0x00, 0x00,
  0x70, 0x3a, 0x00, 0x00, 0x20, 0x3a, 0x00, 0x00, 0x00, 0x3a, 0x00, 0x00,
  0xe8, 0x39, 0x00, 0x00, 0xd8, 0x01, 0x00, 0x00, 0xc8, 0x00, 0x00, 0x00,
  0xc0, 0x00, 0x00, 0x00, 0xb8, 0x00, 0x00, 0x00, 0xb0, 0x00, 0x00, 0x00,
  0xa8, 0x00, 0x00, 0x00, 0xa0, 0x00, 0x00, 0x00, 0x98, 0x00, 0x00, 0x00,
  0x90, 0x00, 0x00, 0x00, 0x88, 0x00, 0x00, 0x00, 0x68, 0x00, 0x00, 0x00,
  0x04, 0x00, 0x00, 0x00, 0x2a, 0xbb, 0xff, 0xff, 0x04, 0x00, 0x00, 0x00,
  0x54, 0x00, 0x00, 0x00, 0x0c, 0x00, 0x00, 0x00, 0x08, 0x00, 0x0e, 0x00,
  0x08, 0x00, 0x04, 0x00, 0x08, 0x00, 0x00, 0x00, 0x10, 0x00, 0x00, 0x00,
  0x24, 0x00, 0x00, 0x00, 0x00, 0x00, 0x06, 0x00, 0x08, 0x00, 0x04, 0x00,
  0x06, 0x00, 0x00, 0x00, 0x04, 0x00, 0x00, 0x00, 0x00, 0x00, 0x00, 0x00,
  0x00, 0x00, 0x0a, 0x00, 0x10, 0x00, 0x0c, 0x00, 0x08, 0x00, 0x04, 0x00,
  0x0a, 0x00, 0x00, 0x00, 0x02, 0x00, 0x00, 0x00, 0x02, 0x00, 0x00, 0x00,
  0x04, 0x00, 0x00, 0x00, 0x06, 0x00, 0x00, 0x00, 0x32, 0x2e, 0x31, 0x31,
  0x2e, 0x30, 0x00, 0x00, 0x8a, 0xbb, 0xff, 0xff, 0x04, 0x00, 0x00, 0x00,
  0x10, 0x00, 0x00, 0x00, 0x31, 0x2e, 0x35, 0x2e, 0x30, 0x00, 0x00, 0x00,
  0x00, 0x00, 0x00, 0x00, 0x00, 0x00, 0x00, 0x00, 0x00, 0xb2, 0xff, 0xff,
  0x04, 0xb2, 0xff, 0xff, 0x08, 0xb2, 0xff, 0xff, 0x0c, 0xb2, 0xff, 0xff,
  0x10, 0xb2, 0xff, 0xff, 0x14, 0xb2, 0xff, 0xff, 0x18, 0xb2, 0xff, 0xff,
  0x1c, 0xb2, 0xff, 0xff, 0xc6, 0xbb, 0xff, 0xff, 0x04, 0x00, 0x00, 0x00,
  0x00, 0x01, 0x00, 0x00, 0x80, 0x06, 0x00, 0xbf, 0x4d, 0x82, 0xa4, 0x3e,
  0x07, 0xc6, 0xff, 0xbd, 0x52, 0x50, 0xfa, 0x3e, 0x6e, 0x3d, 0x91, 0x3e,
  0x37, 0xd1, 0x0b, 0x3c, 0x8a, 0xe6, 0x1a, 0x3e, 0xd5, 0xad, 0x53, 0xbe,
  0x2d, 0x42, 0x54, 0xbe, 0xee, 0x04, 0x6a, 0xbc, 0xb9, 0x27, 0xdd, 0x3d,
  0xb6, 0xc5, 0x95, 0x3e, 0x81, 0x1e, 0x51, 0xbd, 0xfc, 0x45, 0x70, 0xbe,
  0x2b, 0x2a, 0x82, 0xbe, 0xa2, 0x07, 0x4d, 0x3e, 0x64, 0x38, 0xcf, 0xbe,
  0x38, 0xc8, 0xf5, 0xbe, 0x7e, 0xc6, 0x14, 0xbe, 0xd3, 0x01, 0xe2, 0x3e,
  0x29, 0x1d, 0x69, 0x3e, 0xac, 0x9f, 0xfe, 0x3a, 0xef, 0x2a, 0x3e, 0x3e,
  0x55, 0x13, 0x2b, 0xbe, 0x98, 0x53, 0x86, 0xbe, 0xce, 0x55, 0xaa, 0x3d,
  0x90, 0x85, 0xeb, 0x3d, 0x0f, 0x18, 0xdc, 0x3e, 0xa9, 0x71, 0xfa, 0xbd,
  0x7d, 0xa0, 0x46, 0xbe, 0xc9, 0x6a, 0x52, 0xbe, 0xfc, 0xec, 0x82, 0x3e,
  0x73, 0xda, 0x95, 0xbe, 0x20, 0xbe, 0x34, 0xbe, 0x65, 0x51, 0x5d, 0xbe,
  0x57, 0x2c, 0xa9, 0x3e, 0x0a, 0xbe, 0x42, 0x3e, 0x03, 0x75, 0x0d, 0x3d,
  0x24, 0x35, 0x7e, 0x3e, 0xba, 0x2f, 0xc0, 0xbd, 0xce, 0x73, 0xb2, 0xbe,
  0x9d, 0x55, 0x36, 0x3e, 0x4a, 0x10, 0x60, 0x3e, 0xa5, 0x34, 0xf3, 0x3e,
  0xe1, 0xc3, 0xb3, 0xbd, 0x6b, 0x9c, 0x02, 0xbe, 0xcf, 0x2f, 0x71, 0xbe,
  0xf2, 0xaa, 0x5e, 0x3e, 0x3c, 0xd2, 0x6d, 0xbe, 0x3f, 0x00, 0x54, 0xbe,
  0x85, 0x7d, 0x0e, 0xbf, 0xed, 0x6c, 0x1e, 0x3e, 0x52, 0x0a, 0x1e, 0x3e,
  0xe7, 0xc6, 0x87, 0x3d, 0x4f, 0xe1, 0x96, 0x3e, 0x4b, 0x5e, 0x21, 0xbe,
  0xf4, 0xcf, 0x20, 0xbf, 0xc4, 0x38, 0x16, 0x3e, 0xa1, 0x07, 0x22, 0x3e,
  0xa7, 0x90, 0xe3, 0x3e, 0x23, 0xc2, 0x19, 0xbe, 0x26, 0x9a, 0xac, 0xbd,
  0x4b, 0x54, 0x9c, 0xbe, 0x6c, 0x4e, 0x12, 0x3e, 0xd2, 0xbc, 0xff, 0xff,
  0x04, 0x00, 0x00, 0x00, 0x00, 0x38, 0x00, 0x00, 0xf8, 0xe6, 0x47, 0xbe,
  0x04, 0xbb, 0x61, 0x3d, 0xc7, 0xc8, 0xa6, 0xbe, 0x62, 0x13, 0xbd, 0xbe,
  0x82, 0x29, 0xd9, 0xbe, 0xba, 0x0f, 0x5c, 0xbb, 0xa3, 0x3f, 0x97, 0xbe,
  0xbf, 0xd4, 0x78, 0xbd, 0x9e, 0x96, 0x0a, 0xbf, 0x83, 0xfd, 0xf8, 0xbb,
  0xd4, 0x25, 0xe9, 0xbe, 0x84, 0xa8, 0x94, 0x3d, 0xa3, 0x71, 0x93, 0x3d,
  0xb6, 0x9a, 0xa4, 0xbe, 0x8d, 0x5e, 0xf1, 0xbe, 0x17, 0x43, 0x3a, 0xbd,
  0xf1, 0x2d, 0x7d, 0x3e, 0xd3, 0x5b, 0xbf, 0xbe, 0x57, 0x58, 0x21, 0xbe,
  0xa7, 0xdb, 0xc5, 0x3d, 0x58, 0xdf, 0xd2, 0xbe, 0xc5, 0xe4, 0x2f, 0xbe,
  0x7b, 0xbf, 0x09, 0xbf, 0xfd, 0xef, 0x45, 0xbf, 0x0f, 0xed, 0xc4, 0xbe,
  0x1e, 0xcb, 0xbe, 0xbe, 0x7e, 0x3a, 0xc6, 0xbe, 0xae, 0xa1, 0x16, 0x3d,
  0xa6, 0x9c, 0x25, 0xbe, 0x67, 0x09, 0x8e, 0xbd, 0xbd, 0xf9, 0x8f, 0xbe,
  0xbc, 0x96, 0xf7, 0xbd, 0x66, 0x8a, 0x4e, 0xbe, 0xc5, 0xfa, 0xb4, 0xbd,
  0xb3, 0x8e, 0x26, 0xbe, 0x8f, 0xe6, 0x9f, 0x3a, 0xc7, 0x4a, 0x53, 0xbe,
  0xe7, 0x25, 0xa0, 0x3c, 0x78, 0x4f, 0x5e, 0xbe, 0x6f, 0x77, 0x89, 0xbe,
  0xa2, 0x50, 0x02, 0xbe, 0xdd, 0x06, 0x25, 0xbe, 0x61, 0x3f, 0x1f, 0xbf,
  0x18, 0x4f, 0x51, 0x3c, 0x7c, 0x59, 0x1e, 0xbd, 0xb9, 0xdb, 0x46, 0x3d,
  0x68, 0xf3, 0xb2, 0xbe, 0xb0, 0xda, 0x87, 0x3c, 0x2c, 0xb8, 0xa1, 0xbe,
  0xc9, 0x00, 0xa7, 0xbe, 0x1f, 0x87, 0xc9, 0x3d, 0x6e, 0x79, 0x27, 0xbe,
  0x64, 0x32, 0x23, 0xbd, 0xf2, 0x26, 0x6c, 0x3e, 0x92, 0xb3, 0x3e, 0xbe,
  0x98, 0x4d, 0x24, 0xbe, 0xe9, 0x5e, 0x6b, 0xbe, 0x9c, 0x29, 0xaa, 0xbe,
  0x2a, 0x2d, 0x16, 0xbf, 0x43, 0x94, 0x6f, 0xbc, 0x51, 0xc3, 0x1e, 0x39,
  0x95, 0x41, 0x68, 0xbd, 0xb4, 0x8c, 0xe1, 0xbe, 0xaf, 0xf5, 0x12, 0xbd,
  0xea, 0xc4, 0x61, 0xbe, 0x83, 0x9a, 0xe6, 0x3c, 0x55, 0xcc, 0x90, 0xbd,
  0xdc, 0xe2, 0x87, 0x3c, 0xcf, 0x62, 0xe7, 0xbb, 0x2b, 0x9a, 0x50, 0x3d,
  0x00, 0x67, 0x8d, 0x3c, 0x1e, 0x71, 0xdb, 0xbe, 0x2c, 0x93, 0xd0, 0xbd,
  0x49, 0x33, 0x85, 0xbe, 0x75, 0x96, 0xc2, 0xbe, 0x58, 0x25, 0x63, 0x3d,
  0x01, 0x0f, 0xf7, 0xbd, 0xfe, 0x4b, 0x39, 0xbe, 0xf2, 0x16, 0x8f, 0xbe,
  0xf1, 0xd3, 0x48, 0xbe, 0x8e, 0xb5, 0x23, 0xbe, 0x69, 0xf8, 0xd4, 0x3c,
  0xd2, 0xb1, 0xf0, 0x3d, 0xff, 0xa1, 0xb4, 0x3e, 0xa8, 0xe6, 0x6b, 0x3e,
  0x3a, 0x6f, 0x70, 0x3d, 0x37, 0x13, 0x52, 0x3d, 0x09, 0xcf, 0xaa, 0xbe,
  0x5f, 0x31, 0xe1, 0xbc, 0xb0, 0xa9, 0x01, 0xbe, 0xc5, 0x88, 0x87, 0xbe,
  0xe9, 0xce, 0x5d, 0x3d, 0xe2, 0x2b, 0x5f, 0xbd, 0x3e, 0x1f, 0x02, 0xbe,
  0xe7, 0x3b, 0xc3, 0xbe, 0xd3, 0xd7, 0xc6, 0xbc, 0xc7, 0x9c, 0x01, 0xbc,
  0xcc, 0xc1, 0x4b, 0xbd, 0xa2, 0x1e, 0x96, 0x3d, 0xe8, 0x4a, 0xd4, 0x3c,
  0x28, 0x0d, 0x68, 0x3e, 0x25, 0xb5, 0xdd, 0x3d, 0x1b, 0x2b, 0xa6, 0xbc,
  0xfd, 0x71, 0xa7, 0xbe, 0xb3, 0x1b, 0xa4, 0xbd, 0xd6, 0x01, 0xe7, 0xbd,
  0xf1, 0x26, 0xd6, 0xbd, 0x5f, 0x47, 0x52, 0x3d, 0x74, 0x2a, 0xe4, 0x3d,
  0x6c, 0x52, 0x14, 0xbe, 0xd0, 0xf9, 0xfe, 0xbd, 0xf2, 0xb6, 0x35, 0xbe,
  0x4f, 0xfb, 0x07, 0x3c, 0xc0, 0x7f, 0x42, 0x3e, 0x3b, 0x8f, 0xfb, 0xbd,
  0x1e, 0x70, 0x49, 0xbe, 0x00, 0x80, 0x44, 0xbd, 0x7e, 0x47, 0x21, 0x3e,
  0x27, 0x3d, 0x8f, 0xbe, 0xb9, 0x88, 0x9f, 0xbd, 0xcd, 0xc5, 0x55, 0xbe,
  0x06, 0xa1, 0xf9, 0x3d, 0x9d, 0xb6, 0x8f, 0xbe, 0x0c, 0x39, 0x66, 0x3d,
  0xc9, 0x71, 0xd7, 0x3d, 0xc9, 0xd0, 0xaf, 0xbd, 0x92, 0xb8, 0xe6, 0x3c,
  0xec, 0x28, 0x33, 0xbe, 0x3d, 0xbe, 0x82, 0x3e, 0x91, 0x3c, 0x11, 0xbd,
  0x10, 0x77, 0xe0, 0x3d, 0x98, 0xbb, 0x97, 0x3e, 0xe0, 0x7d, 0x86, 0xbc,
  0xdb, 0x8c, 0x87, 0x3d, 0x16, 0xb2, 0xca, 0xbe, 0x83, 0x58, 0x98, 0x3d,
  0x73, 0xb7, 0x82, 0xbd, 0x04, 0x19, 0x24, 0x3e, 0x05, 0x53, 0x2f, 0xbe,
  0x9a, 0xf6, 0x87, 0xbb, 0x0d, 0x11, 0xf7, 0x3d, 0xa4, 0x49, 0x2e, 0x3d,
  0x66, 0x3a, 0x69, 0x3c, 0xa3, 0xa9, 0xaf, 0xbd, 0x2c, 0xc2, 0x81, 0xbe,
  0x2e, 0x21, 0x21, 0xbe, 0xdc, 0x34, 0xa0, 0x3d, 0x96, 0x75, 0x6d, 0x3e,
  0x52, 0x36, 0xe2, 0x3d, 0xef, 0x41, 0x95, 0x3d, 0x8e, 0x41, 0x0a, 0xbe,
  0x8a, 0x7a, 0xa1, 0xbe, 0x9a, 0x72, 0xfa, 0xbe, 0xed, 0x5a, 0x97, 0x3d,
  0x88, 0x1e, 0xa7, 0xbe, 0xda, 0xfd, 0xcb, 0xbb, 0xab, 0xab, 0x81, 0x3d,
  0x1d, 0x24, 0x90, 0xbd, 0x7c, 0xd0, 0x81, 0x3d, 0x6d, 0xa9, 0x52, 0xbe,
  0x67, 0x11, 0x5f, 0xbc, 0x6d, 0xb0, 0xbf, 0xbe, 0xc6, 0x26, 0xdd, 0xbd,
  0xa2, 0x4e, 0x6d, 0x3d, 0x8e, 0x39, 0x63, 0xbe, 0xd7, 0x58, 0xfa, 0x3d,
  0xfe, 0xe4, 0x8f, 0xbe, 0xa4, 0x27, 0xf9, 0x3d, 0xc2, 0x98, 0xaa, 0xbd,
  0xb8, 0x05, 0xb4, 0xbd, 0xe7, 0x49, 0xdf, 0xbd, 0x7b, 0x7c, 0xaf, 0x3b,
  0xc1, 0x0a, 0x73, 0x3c, 0x60, 0xe4, 0xb6, 0x3b, 0x86, 0xe6, 0x69, 0x3e,
  0x72, 0x61, 0x8b, 0xbe, 0x7d, 0x49, 0x1e, 0xbe, 0x0d, 0x3f, 0xe9, 0xbd,
  0x36, 0xa5, 0x4c, 0xbd, 0x40, 0x1a, 0x69, 0x3e, 0xe4, 0xd2, 0x8b, 0xbd,
  0x2d, 0x1d, 0xee, 0xbd, 0xed, 0xc9, 0x5e, 0x3e, 0x2f, 0x75, 0x79, 0xbe,
  0xa4, 0xf1, 0xb0, 0xbe, 0x9d, 0x5f, 0x5e, 0xbe, 0x0a, 0x52, 0xa3, 0xbe,
  0x30, 0xd7, 0x41, 0xbd, 0xf2, 0x14, 0x95, 0x3d, 0x81, 0xb0, 0x2f, 0xbe,
  0xc0, 0x06, 0x60, 0x3d, 0x78, 0xc5, 0xf2, 0xbe, 0x3b, 0xa4, 0x85, 0xbe,
  0xbb, 0x63, 0xc8, 0xbe, 0xe7, 0x4c, 0xec, 0x3d, 0xa1, 0xa9, 0x41, 0x3e,
  0x42, 0x3d, 0x96, 0xbe, 0x7f, 0x25, 0x1d, 0xbf, 0x59, 0x4a, 0xa9, 0x3e,
  0x53, 0x82, 0x01, 0xbe, 0xca, 0x71, 0x29, 0xbe, 0x06, 0x1a, 0x02, 0xbf,
  0x5c, 0x47, 0x31, 0xbf, 0xda, 0xdc, 0x5f, 0xbc, 0x16, 0x88, 0x24, 0xbd,
  0xd9, 0x3a, 0x15, 0x3e, 0x20, 0xc2, 0x1b, 0xbe, 0x92, 0xee, 0xd7, 0x3c,
  0xc3, 0x49, 0x56, 0xbe, 0xdf, 0x54, 0xa1, 0x3d, 0x00, 0xf6, 0xd8, 0xbd,
  0x34, 0x50, 0x31, 0x3e, 0xe8, 0x16, 0x0d, 0x3d, 0xad, 0xed, 0xb2, 0xbe,
  0x5f, 0xd0, 0x97, 0x3e, 0xd6, 0x8c, 0x42, 0xbe, 0x76, 0x87, 0x89, 0x3e,
  0x88, 0xbf, 0xd7, 0xbe, 0xde, 0x3e, 0x8f, 0x3d, 0x00, 0xff, 0x76, 0x3d,
  0x1d, 0x1a, 0xb1, 0x3d, 0x32, 0x1f, 0x9c, 0xbc, 0xcb, 0x27, 0x77, 0x3d,
  0xf0, 0x1d, 0xa1, 0x3e, 0xf8, 0x65, 0x51, 0xbe, 0xf4, 0x27, 0x9d, 0xbd,
  0x0d, 0x87, 0x41, 0xbd, 0x9d, 0x0e, 0xbd, 0x3e, 0xce, 0xff, 0x4c, 0xbe,
  0x23, 0x02, 0xac, 0xbe, 0x27, 0xce, 0xc7, 0xbd, 0x4a, 0xaa, 0xb7, 0xbe,
  0x84, 0x9d, 0x78, 0xbe, 0xd4, 0x16, 0x49, 0xbe, 0xcf, 0x72, 0x33, 0xbe,
  0x90, 0x52, 0x67, 0xbe, 0xde, 0x57, 0x09, 0x3f, 0xe0, 0x18, 0x86, 0xbb,
  0xb6, 0xf4, 0x78, 0xbe, 0xe4, 0xe0, 0x41, 0xbe, 0x07, 0x08, 0xe4, 0x3e,
  0x3d, 0x82, 0x47, 0x3d, 0xe9, 0xdb, 0x74, 0x3c, 0x78, 0x0f, 0x1e, 0x3f,
  0x24, 0x6d, 0x9b, 0xbe, 0xe4, 0x4e, 0x22, 0xbe, 0xc9, 0x7e, 0x4a, 0xbc,
  0x0c, 0x53, 0x59, 0xbe, 0x03, 0x8b, 0x95, 0xbd, 0x5a, 0x21, 0x0d, 0xbe,
  0x61, 0xba, 0x70, 0xbe, 0x29, 0x7a, 0xd5, 0xbe, 0xba, 0xcd, 0x35, 0x3f,
  0x2f, 0xe8, 0x12, 0xbe, 0x61, 0xae, 0x10, 0xbe, 0xe5, 0xce, 0xa7, 0xbd,
  0xfb, 0x69, 0x09, 0x3f, 0x8f, 0x89, 0x28, 0xbd, 0x1c, 0x7b, 0x28, 0xbc,
  0x18, 0xb9, 0xcb, 0x3e, 0x49, 0xd9, 0x2e, 0xbe, 0x5f, 0xd2, 0x23, 0xbe,
  0x9f, 0x57, 0x8e, 0x3b, 0x4d, 0x09, 0x7a, 0xbc, 0x19, 0xd6, 0x06, 0xbe,
  0x06, 0xfa, 0x5f, 0xbe, 0x6e, 0xff, 0x95, 0xbe, 0x68, 0x02, 0xd9, 0xbd,
  0x22, 0xe2, 0x18, 0x3f, 0xcd, 0x0f, 0x23, 0xbe, 0x37, 0xb3, 0x95, 0xbe,
  0x88, 0xed, 0x97, 0xbd, 0xc8, 0x21, 0x0d, 0x3f, 0x52, 0xca, 0x3c, 0xbe,
  0xa2, 0x71, 0x19, 0x3e, 0x34, 0xd2, 0x01, 0x3f, 0x53, 0xc3, 0xd7, 0xbd,
  0xa2, 0x96, 0xb0, 0xbd, 0xe4, 0x87, 0x7b, 0xbd, 0x90, 0x58, 0x08, 0x3c,
  0x83, 0x92, 0x89, 0xbe, 0xc9, 0x02, 0x59, 0xbe, 0x05, 0xb3, 0x8d, 0xbe,
  0xe2, 0xca, 0x1f, 0xbe, 0x3c, 0xc2, 0xaa, 0x3e, 0xdc, 0xc3, 0xef, 0xbd,
  0xee, 0x60, 0x06, 0xbd, 0xd1, 0xe8, 0x07, 0xbe, 0xfd, 0xef, 0x27, 0x3f,
  0x8e, 0xb3, 0xec, 0x3c, 0x23, 0x09, 0xe7, 0x3d, 0x24, 0x3e, 0x29, 0x3f,
  0x8e, 0x3d, 0xd2, 0xbd, 0xe6, 0x68, 0x03, 0xbe, 0xb6, 0x9d, 0x26, 0xbe,
  0x6c, 0x06, 0x61, 0xbe, 0x28, 0x7c, 0xe3, 0xba, 0x26, 0x37, 0x76, 0xbd,
  0x9c, 0xbb, 0x56, 0xbe, 0xe0, 0xf5, 0x7e, 0xbe, 0x68, 0x75, 0xe3, 0x3e,
  0xef, 0xfc, 0x98, 0x3d, 0x19, 0x8b, 0x30, 0xbe, 0x4f, 0x68, 0x82, 0xbd,
  0x1a, 0x91, 0x8c, 0x3d, 0x8c, 0x2a, 0x17, 0xbe, 0x8c, 0xe4, 0x23, 0xbc,
  0x95, 0xf3, 0xce, 0x3e, 0x71, 0x70, 0x9c, 0xbd, 0x53, 0xc1, 0x1f, 0xbd,
  0xaf, 0xc6, 0x97, 0xbc, 0xd0, 0xd9, 0xbf, 0xbc, 0x4b, 0xc9, 0x43, 0xbd,
  0xa9, 0x08, 0x28, 0xbe, 0xd1, 0xd9, 0x19, 0xbe, 0x3f, 0x2f, 0x18, 0xbe,
  0x02, 0x3c, 0xa4, 0x3e, 0x86, 0x4b, 0x03, 0xbe, 0xc4, 0x43, 0x8b, 0xbe,
  0x04, 0xb7, 0x62, 0xbe, 0xd3, 0x8f, 0xcf, 0x3e, 0x9a, 0x3d, 0x01, 0xbc,
  0x02, 0xfb, 0x56, 0x3e, 0x40, 0x35, 0x2b, 0x3f, 0x46, 0x0c, 0x69, 0xbe,
  0x52, 0x31, 0x72, 0xbd, 0x97, 0x45, 0x47, 0xbe, 0xd3, 0x40, 0x8a, 0xbe,
  0x40, 0xd3, 0x01, 0xbd, 0xbf, 0x55, 0xc5, 0xbd, 0xcf, 0xfc, 0x43, 0xbe,
  0x05, 0x78, 0x89, 0xbd, 0x50, 0x07, 0x2b, 0x3f, 0x72, 0xb6, 0x32, 0x3e,
  0x93, 0x11, 0xb2, 0xbc, 0xd5, 0x7a, 0x41, 0xbe, 0x14, 0x51, 0x6d, 0x3d,
  0x2a, 0x26, 0x12, 0xbe, 0xa1, 0x2c, 0xd4, 0xbc, 0xa0, 0xe2, 0x1b, 0x3f,
  0x7d, 0x8c, 0x30, 0xbe, 0x3e, 0xf0, 0xe8, 0xbd, 0xf4, 0xb2, 0x4d, 0xbe,
  0x56, 0xdb, 0x9b, 0xbe, 0x70, 0xa6, 0x30, 0xbe, 0xaf, 0x1a, 0xf3, 0x3c,
  0xb9, 0xc2, 0x3a, 0xbe, 0xbb, 0xa0, 0x49, 0xbe, 0xf6, 0x94, 0xdf, 0x3e,
  0x3f, 0x81, 0xf2, 0x3d, 0x5d, 0x45, 0x53, 0xbe, 0xaa, 0xab, 0x25, 0x3b,
  0x0e, 0x30, 0x2a, 0x3f, 0x10, 0x45, 0x26, 0xbe, 0xb5, 0xf8, 0x1c, 0x3e,
  0xee, 0xcd, 0xed, 0x3e, 0x38, 0xac, 0x35, 0xbe, 0xdd, 0x3f, 0x48, 0xbd,
  0xa4, 0xa1, 0x0b, 0xbe, 0xe9, 0x9f, 0x8d, 0xbe, 0x07, 0x7d, 0xf6, 0xbd,
  0xf3, 0x68, 0x3e, 0xbe, 0x98, 0x8a, 0xdc, 0xbd, 0x7e, 0xbd, 0xdc, 0xbd,
  0xa9, 0xe7, 0xe0, 0x3e, 0x93, 0xd8, 0x15, 0x3e, 0x49, 0x1d, 0x52, 0xbe,
  0x00, 0x1d, 0x8d, 0xbe, 0xf0, 0xe3, 0xce, 0xbd, 0x12, 0x30, 0x8a, 0x3d,
  0x07, 0x7c, 0x61, 0x3e, 0xd9, 0xe9, 0x34, 0x3f, 0x54, 0x55, 0x85, 0xbe,
  0x99, 0x54, 0x3c, 0xbd, 0x52, 0x79, 0x4a, 0xbd, 0x5e, 0x67, 0x89, 0xbe,
  0xf8, 0x1c, 0xff, 0xbb, 0xe0, 0x98, 0x03, 0xbe, 0x4f, 0x3f, 0x13, 0xbe,
  0x38, 0xff, 0xab, 0xbd, 0x8b, 0xb1, 0xc9, 0x3e, 0xcb, 0xd3, 0x2c, 0xbe,
  0x52, 0x85, 0x60, 0xbd, 0xb1, 0x76, 0x06, 0xbe, 0x8f, 0xe8, 0xca, 0x3d,
  0x6d, 0xb7, 0xeb, 0x3c, 0xb2, 0x95, 0xb7, 0xbd, 0x5c, 0xb9, 0x24, 0x3f,
  0x6c, 0xd8, 0x9f, 0xbd, 0xc2, 0x75, 0x38, 0xbe, 0x51, 0x10, 0xc3, 0x3c,
  0xbf, 0xe4, 0xba, 0xbe, 0x1d, 0x98, 0x78, 0xbe, 0x69, 0xde, 0x9f, 0x3b,
  0xc5, 0x5b, 0x18, 0xbe, 0x3e, 0xef, 0xf7, 0xbd, 0xe7, 0x28, 0x06, 0x3f,
  0xc3, 0x87, 0xe6, 0xbd, 0x56, 0x37, 0xa7, 0xbe, 0x58, 0x37, 0x29, 0xbd,
  0xff, 0x6e, 0x09, 0x3f, 0xa8, 0xd4, 0x1f, 0xbe, 0xfa, 0x60, 0x38, 0x3e,
  0x1c, 0xc8, 0x09, 0x3f, 0x82, 0x5a, 0x14, 0xbe, 0x34, 0x55, 0xdc, 0xbd,
  0xef, 0x7a, 0x95, 0xbd, 0x28, 0x0c, 0x81, 0xbe, 0xa8, 0xe5, 0x3d, 0x3c,
  0x40, 0x27, 0x2f, 0xbc, 0x99, 0x8a, 0xc3, 0xbe, 0xf7, 0x37, 0x6c, 0xbd,
  0xdd, 0x6c, 0x18, 0x3f, 0x72, 0xd2, 0xe6, 0x3d, 0x9d, 0x10, 0x67, 0xbe,
  0x38, 0x5a, 0x6d, 0xbc, 0xe2, 0xa9, 0x73, 0x3c, 0x8a, 0xfe, 0xe9, 0x3d,
  0x6f, 0x6b, 0x8c, 0x3d, 0x30, 0x58, 0x3c, 0x3f, 0x14, 0x57, 0xf8, 0xbd,
  0xe2, 0x46, 0x74, 0xbe, 0x75, 0xbd, 0x65, 0xbc, 0x59, 0xbe, 0x3f, 0xbe,
  0xd0, 0x45, 0xd5, 0x3d, 0x19, 0x74, 0x0b, 0xbe, 0x86, 0x0d, 0xa8, 0xbe,
  0xe4, 0x60, 0x4c, 0xbe, 0xc6, 0x94, 0xc6, 0x3e, 0xc0, 0xfb, 0x49, 0x3d,
  0xfd, 0xac, 0x1a, 0xbe, 0xdc, 0xb2, 0x5d, 0xbd, 0xb4, 0x9d, 0x53, 0xbe,
  0xc6, 0x94, 0x5b, 0xbe, 0x8c, 0x4e, 0x48, 0x3e, 0xe3, 0x05, 0xbf, 0x3d,
  0x88, 0xdd, 0x34, 0xbe, 0x14, 0xc5, 0x31, 0xbe, 0x90, 0xac, 0x39, 0xbe,
  0xfd, 0x8a, 0x84, 0xbd, 0x63, 0xe1, 0xbe, 0xbe, 0xc8, 0xeb, 0xe8, 0xbb,
  0x2d, 0x18, 0x95, 0xbe, 0x82, 0x18, 0x8d, 0xbe, 0x4e, 0x9b, 0x2c, 0x3f,
  0x8c, 0xa0, 0x1d, 0xbe, 0x3d, 0x13, 0xa6, 0xbe, 0xc0, 0xea, 0xa6, 0xbe,
  0xaa, 0xf6, 0xa7, 0xbd, 0x76, 0x53, 0xfe, 0x3d, 0x34, 0xff, 0x3a, 0xbd,
  0xdc, 0x7f, 0x96, 0x3e, 0xb4, 0xb6, 0x9d, 0xbd, 0x60, 0x1b, 0x52, 0xbd,
  0x0f, 0xa1, 0x4d, 0xbe, 0x5b, 0x9c, 0x98, 0xbd, 0x72, 0xf3, 0xc2, 0xbc,
  0xf0, 0xfa, 0x8c, 0xbe, 0xa9, 0xfc, 0x8d, 0x3c, 0x74, 0x2e, 0x84, 0xbe,
  0x62, 0xaf, 0x6a, 0x3f, 0xd5, 0x40, 0x07, 0x3e, 0xbf, 0x76, 0xf3, 0x3d,
  0x70, 0x2a, 0xe6, 0x3c, 0x6f, 0x55, 0x64, 0x3d, 0x05, 0x81, 0x19, 0x3e,
  0xd0, 0xf2, 0xa1, 0xbc, 0xcf, 0xac, 0x90, 0x3d, 0x8d, 0x2d, 0x2e, 0xbe,
  0x9e, 0xb3, 0xfa, 0xbd, 0x59, 0x5a, 0x19, 0x3e, 0xe1, 0x1c, 0x74, 0x3d,
  0x63, 0xfe, 0x0b, 0x3d, 0x51, 0xea, 0x0c, 0x3d, 0xb5, 0x5f, 0x66, 0xbd,
  0xec, 0x77, 0x27, 0xbe, 0x16, 0x46, 0x8d, 0x3f, 0x60, 0xa5, 0x01, 0x3e,
  0x1a, 0xd9, 0xd5, 0xbe, 0xed, 0x3b, 0xd3, 0xbd, 0xe6, 0x22, 0x63, 0xbe,
  0x10, 0x36, 0x56, 0x3d, 0xb6, 0xe0, 0x54, 0x3e, 0xbc, 0x47, 0x81, 0xbd,
  0xb6, 0xbb, 0x9a, 0x3d, 0xd5, 0xf7, 0x18, 0xbc, 0x33, 0x8e, 0xb9, 0x3d,
  0xd4, 0x4b, 0x11, 0xbe, 0x4c, 0x2b, 0x6f, 0x3d, 0x0b, 0xe7, 0x4e, 0x3c,
  0xdd, 0x7d, 0x82, 0xbe, 0x91, 0x42, 0x7e, 0xbe, 0xb8, 0x3e, 0x09, 0x3f,
  0x6f, 0x37, 0x26, 0x3f, 0xaa, 0xc5, 0x34, 0xbe, 0x93, 0x2f, 0x01, 0xbd,
  0xaf, 0xcc, 0x35, 0xbc, 0xe7, 0xae, 0x44, 0x3e, 0x49, 0x62, 0x36, 0x3e,
  0xa7, 0xb8, 0x8b, 0xbd, 0x3d, 0x10, 0x9e, 0xbc, 0x1e, 0xcb, 0x67, 0xbd,
  0x00, 0x73, 0xa9, 0x3c, 0x9c, 0xc1, 0x57, 0xbe, 0x14, 0x5d, 0x3f, 0xbe,
  0xdc, 0x88, 0x0f, 0x3e, 0x02, 0xd7, 0x43, 0xbe, 0x27, 0xad, 0x14, 0xbe,
  0x0d, 0xc7, 0xc1, 0x3e, 0xc3, 0xd7, 0x30, 0x3f, 0x4e, 0xac, 0xc8, 0xbe,
  0x92, 0x65, 0x3f, 0xbd, 0xa5, 0x11, 0xbb, 0x3d, 0xd1, 0x51, 0x92, 0x3d,
  0xf4, 0x54, 0xe9, 0x3e, 0xab, 0x17, 0xb5, 0x3d, 0xeb, 0x17, 0x84, 0x3e,
  0xf3, 0x34, 0x7e, 0xba, 0xce, 0x80, 0x2c, 0xbd, 0x44, 0x98, 0x92, 0xbd,
  0xbd, 0xa7, 0xf3, 0xbd, 0x17, 0x04, 0xef, 0x3d, 0xab, 0xfd, 0x1e, 0xbe,
  0x5d, 0x30, 0x96, 0xbe, 0x1a, 0x83, 0x6e, 0x3e, 0xf4, 0x2b, 0x33, 0xbe,
  0x08, 0x87, 0xd2, 0xbe, 0xd4, 0x75, 0x56, 0xbd, 0x8c, 0xab, 0x38, 0xbd,
  0x9e, 0x0a, 0x84, 0x3e, 0x16, 0x6f, 0xfd, 0x3e, 0x4d, 0x0e, 0x20, 0x3d,
  0xd4, 0x37, 0xee, 0x3d, 0xaa, 0xad, 0x31, 0xbd, 0x1a, 0xf0, 0x48, 0xbb,
  0x00, 0x45, 0x8c, 0xbe, 0xd1, 0x9e, 0xe4, 0x3d, 0xcb, 0x2d, 0x87, 0x3d,
  0x6c, 0xf9, 0x2e, 0xbe, 0x29, 0x8c, 0x31, 0xbb, 0xe1, 0x0f, 0xfe, 0x3e,
  0x01, 0xd5, 0x43, 0xbd, 0x73, 0x4a, 0xba, 0xbe, 0xa0, 0x1e, 0xaf, 0xbd,
  0x04, 0x9a, 0xd7, 0xbd, 0xe4, 0xc4, 0xfd, 0x3d, 0x85, 0xf0, 0x88, 0x3e,
  0x00, 0x06, 0x9f, 0x3e, 0xcc, 0x25, 0x09, 0x3d, 0xbd, 0x04, 0x60, 0x3d,
  0xd5, 0xd2, 0x95, 0xbd, 0x9a, 0x47, 0xab, 0x3d, 0x44, 0x59, 0x3c, 0xbd,
  0xcd, 0x90, 0x54, 0x3e, 0x1c, 0x80, 0x1a, 0xbd, 0x6b, 0xa8, 0x3a, 0xbe,
  0x10, 0xdf, 0xf7, 0x3e, 0xc4, 0x44, 0xbb, 0xbc, 0x84, 0x7e, 0x85, 0xbe,
  0x6c, 0x40, 0x13, 0xbe, 0x6c, 0xfc, 0x0d, 0xbd, 0xae, 0x71, 0x6e, 0x3e,
  0xa5, 0xd1, 0xed, 0x3d, 0x89, 0xfa, 0x8b, 0x3d, 0xa7, 0xe5, 0xd4, 0x3d,
  0xd2, 0x50, 0x4b, 0xbe, 0x1e, 0x46, 0xa5, 0x3d, 0x25, 0xe5, 0x2c, 0xbe,
  0xc6, 0xeb, 0x89, 0xbd, 0x68, 0x7c, 0xcf, 0x3d, 0xf5, 0xcd, 0x1f, 0x3d,
  0x86, 0xf3, 0x97, 0xbe, 0x3c, 0xae, 0x92, 0x3f, 0x8d, 0xf6, 0xbf, 0xbc,
  0x6b, 0x0c, 0x34, 0xbe, 0xba, 0x51, 0x8f, 0xbe, 0x0b, 0x1f, 0x96, 0xbe,
  0xbf, 0x84, 0xad, 0x3e, 0xd2, 0xf8, 0x18, 0x3e, 0x16, 0x26, 0x9b, 0xbb,
  0x40, 0xa5, 0x07, 0x3e, 0xa7, 0xde, 0x57, 0xbe, 0x24, 0xf8, 0xdd, 0xbd,
  0xf0, 0xa9, 0x96, 0x3e, 0xcd, 0xa3, 0x88, 0xbd, 0x95, 0xa2, 0x18, 0xbe,
  0x90, 0x06, 0x0f, 0xbe, 0xee, 0xf6, 0xb5, 0xbd, 0x20, 0xf5, 0x0a, 0x3f,
  0x74, 0xc3, 0x9b, 0xbc, 0xbe, 0x40, 0xb2, 0xbd, 0xd7, 0x21, 0x8f, 0x3d,
  0xf3, 0x9c, 0x37, 0x3d, 0x7d, 0xd6, 0xcd, 0xbd, 0x21, 0xf3, 0x11, 0x3e,
  0xda, 0xb5, 0x90, 0x3e, 0x61, 0xb7, 0xa7, 0x3d, 0x36, 0xd1, 0xbf, 0x3d,
  0x8b, 0xbc, 0xad, 0xbd, 0xa6, 0x13, 0x47, 0x3d, 0x71, 0x31, 0xb6, 0x3d,
  0xfd, 0x82, 0x1a, 0x3e, 0xea, 0xe5, 0x41, 0xbe, 0x87, 0xed, 0x24, 0xbd,
  0xbd, 0xbe, 0x48, 0x3f, 0x4c, 0xb9, 0x15, 0x3e, 0xf2, 0xdb, 0x11, 0xbe,
  0x91, 0x02, 0x0c, 0xbe, 0x94, 0xfd, 0x9a, 0xbd, 0x26, 0xe5, 0x89, 0x3e,
  0x9e, 0xbc, 0x98, 0x3d, 0xe5, 0x15, 0x27, 0x3d, 0x50, 0x8c, 0x34, 0xbd,
  0xef, 0xe5, 0x91, 0xbd, 0xf0, 0xc3, 0x14, 0xbe, 0x86, 0x99, 0x88, 0x3e,
  0x9d, 0xcb, 0x3b, 0x3e, 0x4e, 0x3f, 0xcd, 0xbc, 0x94, 0x86, 0xac, 0xbe,
  0x7b, 0xfb, 0x4f, 0xbd, 0xb7, 0xf8, 0x88, 0x3f, 0x1b, 0x56, 0xb7, 0xbd,
  0xc8, 0xd2, 0x70, 0xbd, 0xeb, 0x0e, 0x67, 0xbd, 0x93, 0xea, 0x92, 0x3e,
  0x5c, 0x54, 0x40, 0x3e, 0x6f, 0xbc, 0xf1, 0x3c, 0xe9, 0xe6, 0xc1, 0x3e,
  0xcd, 0x94, 0x9a, 0x3d, 0xd6, 0xe2, 0xe7, 0xbe, 0xc9, 0xbe, 0x48, 0xbe,
  0xbb, 0x55, 0xaf, 0xbd, 0xa9, 0xb4, 0x4f, 0x3d, 0xac, 0x39, 0x20, 0x3e,
  0xa9, 0x51, 0x93, 0x3d, 0xd4, 0x06, 0xc1, 0xbe, 0x07, 0x9b, 0x6c, 0x3f,
  0x5f, 0x46, 0x0c, 0xbe, 0xff, 0xaf, 0xbc, 0x3d, 0x04, 0xb3, 0x9f, 0xbd,
  0xbe, 0x02, 0xb2, 0xbb, 0x98, 0xd3, 0x44, 0xbd, 0xb0, 0x84, 0xe4, 0x3c,
  0xd0, 0x5c, 0xe4, 0x3d, 0x04, 0x99, 0xbb, 0xbd, 0x1f, 0x83, 0x24, 0xbe,
  0xde, 0x78, 0x19, 0xbd, 0x59, 0x33, 0xa0, 0xbd, 0x8e, 0xe2, 0x88, 0xbe,
  0x6f, 0xa2, 0xc9, 0x3e, 0x6e, 0x9f, 0x3f, 0xbe, 0xad, 0xa8, 0x24, 0x3e,
  0xfb, 0x42, 0x7b, 0x3f, 0x22, 0xba, 0xe3, 0x3e, 0xd4, 0xe8, 0xfd, 0xbe,
  0x6d, 0x41, 0x57, 0x3e, 0xb9, 0x84, 0xfb, 0x3d, 0xfe, 0x54, 0xd1, 0xbe,
  0x5f, 0x49, 0xcf, 0xbd, 0x6a, 0x42, 0x97, 0xbe, 0xe0, 0xe9, 0xaf, 0xbe,
  0x13, 0x3f, 0x6a, 0xbe, 0x0c, 0x9e, 0x8b, 0xbd, 0xc8, 0x5c, 0x78, 0xbe,
  0xba, 0x98, 0x8f, 0xbe, 0x6f, 0x5d, 0xba, 0xbc, 0x83, 0x50, 0xe5, 0xbe,
  0x9c, 0x46, 0xe7, 0xbd, 0xa3, 0x02, 0x29, 0x3f, 0x27, 0x2e, 0xed, 0x3d,
  0x41, 0x69, 0xa8, 0xbe, 0x71, 0xd5, 0x14, 0xbe, 0xb9, 0x36, 0xfa, 0x3d,
  0x9d, 0x50, 0x99, 0xbc, 0x9f, 0xd9, 0x68, 0x3d, 0xc0, 0xe3, 0xa8, 0x3e,
  0xdd, 0x2c, 0xb7, 0x3d, 0xcf, 0x17, 0x1c, 0x3d, 0x13, 0x48, 0x53, 0x3d,
  0x2e, 0x90, 0x0f, 0xbd, 0x21, 0xa9, 0x44, 0xbd, 0x03, 0x23, 0xfa, 0x3b,
  0x5f, 0x8f, 0x89, 0xbc, 0x4f, 0x74, 0x38, 0xbe, 0x4f, 0x00, 0xf4, 0x3d,
  0xb6, 0x5e, 0x9d, 0x3e, 0x06, 0x6b, 0xeb, 0x3d, 0x61, 0xb3, 0x22, 0x3e,
  0x5d, 0x62, 0x7f, 0xbe, 0xdb, 0x17, 0xbb, 0xbc, 0x57, 0x53, 0x42, 0x3e,
  0xe7, 0x41, 0x8e, 0x3c, 0x0b, 0xf2, 0x01, 0xbe, 0x08, 0xd8, 0x94, 0xbd,
  0xd0, 0xfa, 0x29, 0x3e, 0x70, 0x77, 0x14, 0x3d, 0x1d, 0xe2, 0x9b, 0x3d,
  0xf5, 0xf5, 0x25, 0xbe, 0xe7, 0x0c, 0x28, 0xbe, 0xb6, 0xc6, 0xdd, 0xbd,
  0xa9, 0x59, 0x3b, 0x3f, 0xb6, 0x04, 0x5a, 0xbe, 0xc6, 0x55, 0xae, 0x3d,
  0xeb, 0xdc, 0x99, 0x3d, 0x88, 0x52, 0x95, 0xbe, 0xa1, 0x11, 0x34, 0x3b,
  0xb4, 0x96, 0x13, 0x3e, 0x32, 0xc5, 0x5c, 0x3e, 0x98, 0xc3, 0x8e, 0x3d,
  0x56, 0xfa, 0xf7, 0x3d, 0x54, 0x7f, 0xe1, 0x3d, 0x16, 0x7b, 0x8b, 0x3d,
  0xd5, 0xc6, 0x9e, 0xbc, 0x30, 0xb4, 0xe0, 0xbc, 0x19, 0x15, 0xa9, 0x3d,
  0x72, 0x0d, 0x0c, 0xbe, 0xb0, 0x8b, 0xd5, 0x3e, 0xbe, 0x0b, 0x0c, 0xbf,
  0x89, 0xce, 0xb9, 0xbb, 0x83, 0x9f, 0x17, 0xbd, 0x77, 0xc1, 0xa2, 0xbd,
  0x35, 0x48, 0x8d, 0xbe, 0x87, 0x80, 0xfa, 0x3d, 0xeb, 0x81, 0x2f, 0xbe,
  0x9c, 0x79, 0xba, 0xbd, 0x92, 0xa7, 0x54, 0x3c, 0xb9, 0x5e, 0x20, 0x3d,
  0xd2, 0xe2, 0x03, 0xbd, 0x26, 0x23, 0xb4, 0x3c, 0x05, 0x8f, 0xcc, 0x3d,
  0x4d, 0xd1, 0x45, 0x3d, 0xba, 0xc4, 0x99, 0xbd, 0x32, 0x71, 0xf0, 0x3e,
  0x4d, 0x96, 0xcf, 0x3e, 0x9e, 0x84, 0x2b, 0xbe, 0xd4, 0xa9, 0xd1, 0xbd,
  0x0b, 0xdc, 0xb4, 0x3b, 0x67, 0x34, 0x33, 0x3c, 0x51, 0x01, 0x4a, 0xbc,
  0x70, 0xb8, 0xb9, 0x3b, 0x0c, 0x99, 0x56, 0x3d, 0x76, 0x86, 0x17, 0x3d,
  0x85, 0x4b, 0x26, 0x3c, 0x7a, 0x76, 0x07, 0x3e, 0xa2, 0x79, 0xf9, 0x3c,
  0xf9, 0x3d, 0x7a, 0xbc, 0x4b, 0xbd, 0xf6, 0x3d, 0xb5, 0xde, 0x60, 0xbe,
  0xd1, 0x23, 0x1b, 0x3f, 0x9d, 0x04, 0x0a, 0x3d, 0xd7, 0xcb, 0xcf, 0xbd,
  0x9f, 0x7e, 0x3f, 0xbd, 0x94, 0x5a, 0x62, 0x3e, 0x8b, 0x60, 0xc4, 0x3d,
  0xbb, 0x82, 0x36, 0xbd, 0x13, 0x04, 0xff, 0xbd, 0x16, 0xcc, 0xb8, 0x3d,
  0x34, 0x24, 0x94, 0xbd, 0xde, 0xb1, 0x5c, 0xbd, 0xb3, 0x38, 0x42, 0x3e,
  0x39, 0xdc, 0xae, 0xbc, 0x4b, 0xae, 0x85, 0xbc, 0x6a, 0xbc, 0x45, 0xbb,
  0x15, 0x7f, 0xba, 0xbe, 0xdc, 0xcc, 0x8e, 0x3e, 0xb8, 0xe7, 0x58, 0xbe,
  0x66, 0xdc, 0xba, 0xbd, 0xe5, 0x7b, 0x2d, 0xbe, 0x56, 0x52, 0xa3, 0x3d,
  0x2a, 0x46, 0xd9, 0x3d, 0x9e, 0x1a, 0xfd, 0xbc, 0x59, 0x4c, 0xf3, 0x3d,
  0x81, 0xf2, 0xbe, 0x3d, 0x40, 0x39, 0xc9, 0x3d, 0xdc, 0x5a, 0x81, 0xbc,
  0x19, 0x39, 0x47, 0xbd, 0xef, 0x84, 0x4b, 0xbd, 0x06, 0xcc, 0xb5, 0x3b,
  0x66, 0xcc, 0x13, 0x3c, 0xc9, 0x85, 0x4d, 0xbe, 0x08, 0xea, 0x2e, 0x3e,
  0x8e, 0x82, 0xca, 0x3e, 0x6c, 0xf4, 0x08, 0x3e, 0x6a, 0xe6, 0xf4, 0x3d,
  0x86, 0x0f, 0x6a, 0xbd, 0x0c, 0x32, 0x96, 0xbe, 0x99, 0xcc, 0x1f, 0x3d,
  0xc2, 0x29, 0xcf, 0x3e, 0xf2, 0xf3, 0x31, 0xbc, 0xe8, 0x3f, 0x19, 0x3c,
  0xfd, 0xf2, 0x30, 0x3d, 0xd0, 0xdb, 0x61, 0xbd, 0xd9, 0x6a, 0x9a, 0xbc,
  0xb9, 0xf1, 0x86, 0xbe, 0x9e, 0x30, 0x9e, 0xbd, 0x38, 0x93, 0xc3, 0xbe,
  0x6b, 0x06, 0x2e, 0x3f, 0xd5, 0x9d, 0x3a, 0xbb, 0x53, 0xc7, 0xcf, 0x3d,
  0xd0, 0x4d, 0x82, 0x3d, 0xb1, 0x91, 0x93, 0xbe, 0x4d, 0x0c, 0x08, 0xbe,
  0x06, 0x97, 0x85, 0x3d, 0xb5, 0x0e, 0x98, 0x3e, 0x30, 0xd8, 0x57, 0x3e,
  0xa1, 0x07, 0xf9, 0x3c, 0x82, 0x0e, 0x25, 0x3d, 0x78, 0x89, 0xab, 0xbd,
  0x4c, 0x23, 0x13, 0x3e, 0x4a, 0x9c, 0xaf, 0xbe, 0x79, 0x92, 0x23, 0x3c,
  0x9c, 0xd7, 0xb5, 0xbe, 0x9d, 0xe9, 0xe2, 0x3e, 0x6f, 0x48, 0xa5, 0xbd,
  0x8c, 0x35, 0x2e, 0x3d, 0x27, 0x2d, 0x55, 0x3d, 0xba, 0xbb, 0x38, 0xbe,
  0x01, 0xc7, 0x3b, 0xbe, 0x2e, 0x04, 0xdf, 0x3d, 0xe9, 0x6f, 0x33, 0x3f,
  0x3c, 0xd6, 0x18, 0x3e, 0x2c, 0x1b, 0x59, 0xbd, 0x0b, 0x8f, 0x02, 0x3e,
  0xa5, 0x0f, 0xf8, 0x3d, 0x37, 0xea, 0x8d, 0x3d, 0x77, 0x47, 0xf8, 0xbb,
  0xae, 0x2e, 0x25, 0xbe, 0x40, 0xd3, 0x10, 0xbe, 0x92, 0x81, 0xf9, 0x3e,
  0xb6, 0xd3, 0x3f, 0x3e, 0x83, 0x8c, 0x8c, 0xbd, 0xe7, 0x11, 0x1b, 0x3e,
  0xa3, 0xd8, 0x02, 0xbd, 0x88, 0x83, 0x11, 0x3e, 0x20, 0x76, 0x6b, 0x3e,
  0xe3, 0xc3, 0xc5, 0x3d, 0x98, 0xc1, 0x51, 0x3d, 0x2a, 0x85, 0x6f, 0x3d,
  0x64, 0xdd, 0xdf, 0x3d, 0xa3, 0x95, 0x08, 0x3e, 0x55, 0xe7, 0x39, 0xbc,
  0xb2, 0xf4, 0xa3, 0x3c, 0x88, 0xe5, 0x59, 0xbd, 0x9f, 0x90, 0xba, 0xbe,
  0x2f, 0x46, 0x16, 0x3f, 0xbb, 0x90, 0xc4, 0xbc, 0x03, 0x4d, 0xe9, 0xbd,
  0x69, 0x94, 0x0d, 0x3d, 0xcf, 0x97, 0xd0, 0xbd, 0x44, 0x81, 0x2b, 0xbc,
  0x99, 0xcc, 0xb6, 0xbd, 0xa6, 0x7c, 0x8f, 0x3e, 0x28, 0xd0, 0xf3, 0xbb,
  0xff, 0xbc, 0x0e, 0xbc, 0x2b, 0x2f, 0x5a, 0x3d, 0x24, 0x4a, 0xd1, 0x3d,
  0x8f, 0xf5, 0xb8, 0x3d, 0x14, 0xde, 0x73, 0xbc, 0x75, 0xe3, 0x82, 0x3d,
  0x47, 0xee, 0x43, 0xbe, 0xc3, 0x24, 0x2a, 0x3e, 0xe9, 0xe9, 0xcb, 0xbd,
  0xe0, 0xa2, 0xab, 0x3d, 0x40, 0xb0, 0xb6, 0x3a, 0xdb, 0xaf, 0x47, 0xbe,
  0x96, 0x0c, 0xed, 0x3c, 0x6f, 0xa4, 0x59, 0xbd, 0x97, 0x80, 0x7f, 0xbe,
  0xee, 0x6f, 0xd3, 0xbd, 0xd1, 0xf9, 0xd5, 0xbc, 0xe0, 0x53, 0xaa, 0xbd,
  0x16, 0x50, 0x30, 0x3d, 0xfe, 0x56, 0x43, 0xbd, 0x6e, 0x70, 0xcd, 0x3d,
  0x9f, 0x8a, 0xa2, 0x3e, 0xac, 0x17, 0xc8, 0xbd, 0x89, 0xdf, 0xe7, 0x3e,
  0xec, 0xf1, 0x38, 0x3e, 0x33, 0x0b, 0x14, 0xbe, 0x31, 0xea, 0x13, 0x3e,
  0xf9, 0x82, 0x79, 0x3e, 0x97, 0x30, 0x9f, 0xbd, 0x73, 0x8a, 0x13, 0xbe,
  0xae, 0x8f, 0xcb, 0xbc, 0x78, 0x09, 0x9a, 0x3d, 0x02, 0xf5, 0x28, 0xbe,
  0x8c, 0xa0, 0x18, 0xbd, 0xa6, 0x7b, 0x17, 0xbe, 0x8b, 0x07, 0x13, 0xbd,
  0x63, 0x27, 0xf3, 0x3d, 0xdf, 0xb9, 0xac, 0x3c, 0x42, 0x86, 0xc9, 0xbe,
  0x3e, 0x9c, 0x83, 0xbe, 0x92, 0x8e, 0x8d, 0x3e, 0x2c, 0xc6, 0x98, 0x3c,
  0xc6, 0x5e, 0x38, 0xbd, 0x59, 0xfb, 0x5e, 0x3d, 0xf8, 0x90, 0x4a, 0x3d,
  0xde, 0x36, 0x3a, 0x3e, 0x3b, 0x0e, 0x71, 0x3e, 0x28, 0xfb, 0x0c, 0x3e,
  0x94, 0x21, 0x60, 0x3d, 0x2f, 0x9e, 0x06, 0x3c, 0xcc, 0x74, 0xba, 0xbb,
  0x5a, 0xe8, 0x5b, 0xbe, 0xec, 0x75, 0xb2, 0xbe, 0xdc, 0xd9, 0xc4, 0x3c,
  0x5d, 0xab, 0x7a, 0xbe, 0x6f, 0x6a, 0x62, 0x3f, 0xb5, 0xe6, 0xc3, 0x3e,
  0xe6, 0x06, 0x1e, 0x3d, 0x6c, 0x3c, 0xa5, 0x3c, 0x79, 0x15, 0x8d, 0xbd,
  0xda, 0xe1, 0x85, 0xbe, 0x82, 0xc5, 0x18, 0xbe, 0x0d, 0x13, 0x48, 0x3d,
  0x79, 0xc2, 0xa6, 0xbd, 0x5c, 0x85, 0xbf, 0xbd, 0x33, 0xea, 0xa9, 0x3d,
  0xa2, 0x6e, 0xaf, 0x3c, 0x61, 0xeb, 0x98, 0xbe, 0xa7, 0x1f, 0xa3, 0xbc,
  0xe5, 0x89, 0xf6, 0xbe, 0x39, 0x57, 0x95, 0xbd, 0xc0, 0x3d, 0x51, 0x40,
  0x0d, 0xbd, 0x81, 0xbc, 0x30, 0x65, 0xda, 0x3e, 0x25, 0xfe, 0xd5, 0x3d,
  0xf6, 0x1b, 0x5a, 0xbe, 0x31, 0xe7, 0xff, 0x3d, 0x41, 0x09, 0x86, 0x3f,
  0x08, 0x85, 0x02, 0x3f, 0xfb, 0xb0, 0x42, 0xbe, 0x32, 0x94, 0x45, 0x3e,
  0xe7, 0x32, 0xf5, 0xbe, 0xb8, 0x59, 0xf7, 0x3e, 0x39, 0x6e, 0x13, 0x3e,
  0xd5, 0x5f, 0xa2, 0x3e, 0x75, 0x29, 0x0d, 0xbf, 0x9f, 0xaf, 0xac, 0xbc,
  0x79, 0x15, 0x8e, 0x40, 0x3f, 0xd6, 0x3b, 0xbe, 0x85, 0x84, 0x2e, 0xbe,
  0x98, 0x6e, 0xa5, 0xbb, 0x2e, 0xb5, 0x76, 0xbd, 0xb7, 0x82, 0x92, 0xbd,
  0x44, 0xff, 0x93, 0x3e, 0xa3, 0x76, 0x2e, 0xbe, 0xe8, 0x44, 0x5d, 0xbe,
  0xad, 0x48, 0x6d, 0xbe, 0xfb, 0x4d, 0xe5, 0xbd, 0x22, 0x95, 0x31, 0xbd,
  0xab, 0x70, 0xa0, 0x3e, 0xd9, 0x4e, 0x69, 0x3d, 0xde, 0xb0, 0x93, 0x3d,
  0x0f, 0xfa, 0x41, 0x3d, 0x9a, 0xfd, 0x15, 0x40, 0x32, 0x91, 0xac, 0x3e,
  0x1b, 0x86, 0xa5, 0x3d, 0xdb, 0x17, 0x4d, 0xbe, 0xbf, 0xbd, 0x11, 0x3e,
  0x9a, 0x41, 0x65, 0x3e, 0x42, 0x21, 0x88, 0xbd, 0x00, 0x05, 0xbb, 0xbe,
  0xbb, 0xfa, 0x0b, 0x3d, 0xb5, 0x6e, 0x9c, 0x3c, 0xb0, 0x23, 0x87, 0xbe,
  0x5a, 0xb6, 0x8f, 0x3d, 0x41, 0x29, 0x86, 0xbe, 0xfc, 0x47, 0xae, 0x3e,
  0x82, 0x78, 0x8d, 0x3e, 0xce, 0xc9, 0x85, 0xbc, 0x33, 0x04, 0x42, 0x3f,
  0xbe, 0x65, 0x92, 0xbd, 0x03, 0x5a, 0x88, 0xbd, 0x87, 0x04, 0x60, 0x3e,
  0x9f, 0xa1, 0xeb, 0x3e, 0x56, 0x2a, 0x38, 0xbe, 0xed, 0xb9, 0x31, 0xbf,
  0x2e, 0x8b, 0x05, 0xbe, 0x46, 0xf0, 0x63, 0xbe, 0x34, 0xf6, 0x83, 0xbe,
  0xce, 0x60, 0x8e, 0xbe, 0x9b, 0x8b, 0x04, 0x3f, 0x33, 0x2e, 0xe9, 0x3d,
  0x93, 0xd6, 0xc1, 0x3d, 0xb4, 0xf7, 0xf3, 0xbe, 0x7b, 0xf6, 0x11, 0xbf,
  0x26, 0x6c, 0xb2, 0x3e, 0x03, 0x31, 0xc2, 0x3b, 0xbe, 0x54, 0xb4, 0xbe,
  0xce, 0xb1, 0x10, 0xbe, 0x03, 0x4d, 0x8d, 0xbe, 0x5d, 0x47, 0xa0, 0xbe,
  0x78, 0x9f, 0xba, 0x3e, 0x34, 0x8c, 0xc5, 0x3e, 0x82, 0x51, 0x80, 0xbe,
  0x25, 0x25, 0x90, 0xbe, 0x73, 0x08, 0xc1, 0xbe, 0xe7, 0xd8, 0x2e, 0x3d,
  0x4f, 0x61, 0xe1, 0xbe, 0x73, 0x18, 0x10, 0xbe, 0x40, 0xa1, 0x8d, 0xbe,
  0xb6, 0x59, 0xd2, 0xbd, 0xf9, 0xdf, 0x62, 0x3e, 0x51, 0xe2, 0xf0, 0x3d,
  0x1a, 0x01, 0x87, 0x3e, 0xae, 0x9f, 0xb4, 0x3d, 0x7c, 0xf5, 0x57, 0x3e,
  0xe4, 0xb3, 0x9e, 0xbd, 0x09, 0x2a, 0x53, 0x3d, 0xa4, 0x37, 0x4e, 0x3e,
  0xa8, 0x52, 0xaa, 0xbe, 0x06, 0x6e, 0x3e, 0x3d, 0x62, 0x1d, 0xec, 0xbe,
  0xfc, 0x6c, 0xf3, 0xbe, 0xaa, 0x01, 0xc9, 0xbd, 0x35, 0xca, 0x89, 0x3d,
  0xc2, 0xd0, 0xd2, 0xbe, 0xfd, 0x8c, 0x2b, 0xbe, 0x16, 0x96, 0x89, 0x3f,
  0x02, 0xb9, 0xf6, 0xbd, 0xd1, 0x3f, 0xbb, 0x3d, 0x34, 0x58, 0xd4, 0x3d,
  0x98, 0xa5, 0xf2, 0x3d, 0x1c, 0x5f, 0xbc, 0x3c, 0x87, 0x95, 0x0f, 0x3e,
  0xed, 0xd0, 0x38, 0x3f, 0xb0, 0x91, 0xfa, 0xbe, 0xb0, 0x76, 0x41, 0xbe,
  0xc5, 0x1f, 0xab, 0xbe, 0x04, 0x1e, 0x80, 0xbe, 0xce, 0x45, 0x8a, 0x3d,
  0xda, 0xd5, 0xf6, 0x3d, 0x15, 0xe0, 0x88, 0xbe, 0xdc, 0xfb, 0x0e, 0xbe,
  0x3d, 0x4c, 0x8d, 0x3f, 0xb5, 0xb1, 0xdc, 0xbd, 0x19, 0x08, 0xf3, 0xbd,
  0xa6, 0x55, 0xbc, 0x3c, 0x84, 0x70, 0xca, 0x3d, 0x84, 0x55, 0xdf, 0x3d,
  0x3f, 0x55, 0x48, 0x3f, 0x3f, 0xd5, 0xdc, 0x3e, 0x83, 0xd7, 0xde, 0xbd,
  0x31, 0x5f, 0xa8, 0xbd, 0x0e, 0xb5, 0xfd, 0xbe, 0x3b, 0x71, 0xb1, 0xbe,
  0x5f, 0x64, 0x44, 0xbe, 0xef, 0x0c, 0x39, 0x3e, 0x35, 0xf5, 0xcd, 0xbd,
  0xda, 0x10, 0x49, 0xbc, 0xdb, 0xab, 0x85, 0x3f, 0x9d, 0xc4, 0x7d, 0xbe,
  0x9c, 0xef, 0xb2, 0xbc, 0x4b, 0xb6, 0xf0, 0xbc, 0xba, 0x92, 0xe4, 0xbd,
  0x84, 0xe2, 0x7e, 0x3d, 0x53, 0xfc, 0xbe, 0x3e, 0x3d, 0x1a, 0x4e, 0x3f,
  0xa0, 0x56, 0x6f, 0xbc, 0xb8, 0xb0, 0x0d, 0xbe, 0x80, 0x7e, 0x25, 0xbf,
  0x06, 0x38, 0x9b, 0xbe, 0x82, 0xfb, 0x69, 0xbe, 0x71, 0x23, 0x70, 0xbb,
  0xa7, 0x1d, 0x7c, 0xbe, 0x9f, 0x56, 0x72, 0xbe, 0x46, 0x46, 0x90, 0x3f,
  0xd7, 0x3b, 0x20, 0xbd, 0x1a, 0xa8, 0x99, 0xbd, 0xb1, 0x19, 0x08, 0x3e,
  0x8f, 0xee, 0xd9, 0xbd, 0x7c, 0xcd, 0x98, 0xbe, 0xd9, 0x3e, 0xdb, 0x3e,
  0x98, 0xd3, 0x28, 0x3f, 0x20, 0x69, 0xb4, 0x3d, 0x5a, 0xd4, 0x3d, 0xbe,
  0x28, 0x2b, 0x08, 0xbf, 0xb3, 0xe0, 0x9f, 0xbe, 0x54, 0xc4, 0xdb, 0xbd,
  0x33, 0xce, 0xcc, 0xbd, 0xdb, 0xdd, 0x92, 0xbe, 0x5a, 0x86, 0x27, 0xbe,
  0x43, 0xab, 0xa2, 0x3f, 0xd9, 0xf2, 0xb7, 0xbd, 0xc4, 0x13, 0x18, 0x3d,
  0x35, 0xe5, 0x44, 0x3c, 0xb5, 0x49, 0xad, 0xbd, 0x49, 0xbc, 0xaa, 0x3c,
  0x6b, 0x86, 0x0a, 0x3f, 0x07, 0xce, 0xd8, 0x3e, 0x9d, 0x89, 0x5f, 0xbe,
  0x0f, 0x55, 0xf7, 0xbd, 0x35, 0xf7, 0xbd, 0xbe, 0x4a, 0x84, 0x36, 0xbe,
  0x53, 0x2e, 0x33, 0xbe, 0x4e, 0x52, 0x26, 0x3d, 0xf7, 0xf5, 0xc0, 0xbe,
  0x0d, 0x14, 0x86, 0xbe, 0x45, 0x7a, 0xa4, 0x3f, 0xaf, 0x0d, 0x54, 0x3d,
  0x91, 0x4c, 0x29, 0xbc, 0x12, 0x99, 0x2d, 0x3e, 0xa4, 0xb3, 0x93, 0x3e,
  0xfa, 0x11, 0xf3, 0xbc, 0x82, 0xfe, 0x96, 0x3e, 0x28, 0x0f, 0xaf, 0xbe,
  0x78, 0x77, 0x0a, 0xbc, 0x59, 0x46, 0x7d, 0x3e, 0xa9, 0x0a, 0x3e, 0x3d,
  0x90, 0xb5, 0x5b, 0xbe, 0x39, 0xfa, 0x8c, 0x3d, 0x95, 0xbf, 0x8c, 0x3d,
  0xe3, 0xb0, 0x50, 0xbd, 0x3f, 0x57, 0x1f, 0xbc, 0xf4, 0xdd, 0x20, 0x3e,
  0x9d, 0x0b, 0x7d, 0xbe, 0x95, 0x4f, 0x61, 0xbe, 0xbb, 0xc8, 0x00, 0x3e,
  0x2a, 0xa3, 0x35, 0xbe, 0x94, 0x02, 0x2a, 0xbf, 0x48, 0xac, 0x8e, 0xbc,
  0xa1, 0x64, 0x9d, 0x3e, 0x47, 0x45, 0xf3, 0xbe, 0x0f, 0xb3, 0xee, 0xbb,
  0xc6, 0x3f, 0xd8, 0xbe, 0x7d, 0xb1, 0x1a, 0xbf, 0xfe, 0xbe, 0x76, 0xbd,
  0x36, 0x18, 0x68, 0xbe, 0x1c, 0xb3, 0x39, 0xbf, 0x61, 0x4a, 0x23, 0xbd,
  0xf4, 0x76, 0xd4, 0x3f, 0xf1, 0xe6, 0x8b, 0xbd, 0xeb, 0x53, 0xbf, 0xbe,
  0xf6, 0x7f, 0x2a, 0xbd, 0xc6, 0x5f, 0x88, 0xbe, 0xf4, 0x1f, 0x93, 0xbe,
  0xbd, 0x32, 0xb3, 0x3c, 0x12, 0xd4, 0x87, 0x3e, 0xa4, 0xba, 0xda, 0xbe,
  0xe3, 0x45, 0x92, 0x3e, 0x10, 0xb4, 0x87, 0xbd, 0x3a, 0x3e, 0x0b, 0xbf,
  0x99, 0x46, 0x5d, 0x3d, 0x34, 0xed, 0x0b, 0xbe, 0xfb, 0x88, 0x09, 0xbf,
  0xcf, 0xef, 0x84, 0xbd, 0x90, 0xad, 0xff, 0x3f, 0xdb, 0xd9, 0x6d, 0x3d,
  0x32, 0x5c, 0xd1, 0xbe, 0xa7, 0xe1, 0x6c, 0x3d, 0x23, 0x1a, 0x21, 0xbe,
  0xb9, 0xb3, 0xcf, 0xbd, 0xa0, 0x76, 0xbd, 0xbd, 0x8b, 0xdb, 0x8b, 0x3f,
  0xc1, 0x7d, 0x9a, 0xbe, 0x98, 0x7e, 0x8c, 0x3e, 0xf8, 0x93, 0x83, 0xbe,
  0x28, 0x5a, 0xee, 0xbd, 0x32, 0xc6, 0xe0, 0x3d, 0x23, 0x7f, 0xdd, 0x3d,
  0xb7, 0xc6, 0xd3, 0xbe, 0x5e, 0x3f, 0x1c, 0xbd, 0x31, 0x87, 0xe9, 0x3f,
  0x42, 0x03, 0x43, 0x3d, 0x12, 0x00, 0xdb, 0xbe, 0x3f, 0x8e, 0x2f, 0xbb,
  0xbe, 0x55, 0x2f, 0xbe, 0x90, 0x4e, 0x26, 0x3d, 0x45, 0xb5, 0x2a, 0xbe,
  0x24, 0x38, 0x62, 0x3f, 0x73, 0x14, 0x6a, 0xbe, 0x39, 0x0a, 0xba, 0x3e,
  0xab, 0x1d, 0x9a, 0xbe, 0x1c, 0x65, 0x98, 0xbe, 0xae, 0x32, 0xb1, 0x3e,
  0x3c, 0x73, 0x5e, 0x3e, 0x8f, 0x95, 0x08, 0xbf, 0xdd, 0xa9, 0x07, 0xbd,
  0x62, 0xb0, 0x7e, 0x3f, 0x34, 0xa1, 0x49, 0xbe, 0x0a, 0xa7, 0x0b, 0xbf,
  0x16, 0x03, 0xe0, 0xbc, 0x71, 0x54, 0xd9, 0xbc, 0x87, 0x75, 0x6b, 0x3e,
  0xae, 0x77, 0x78, 0xbd, 0x61, 0x90, 0x0f, 0x3f, 0xd9, 0xb2, 0xd7, 0xbc,
  0x9c, 0x8d, 0xa5, 0x3e, 0x2e, 0x6b, 0xa5, 0xbe, 0x07, 0xb3, 0x9a, 0xbe,
  0x8e, 0xc2, 0x5d, 0x3d, 0x87, 0x91, 0x75, 0x3d, 0x98, 0xd5, 0xbc, 0xbe,
  0xa8, 0x9b, 0xb2, 0xbb, 0x26, 0xb7, 0x98, 0x3f, 0x26, 0x8c, 0x17, 0x3e,
  0x9f, 0xb2, 0x51, 0xbf, 0x76, 0x7e, 0xfb, 0xbc, 0x00, 0xd4, 0xbd, 0xbd,
  0x14, 0x6e, 0x7a, 0xbd, 0xfc, 0x4e, 0xba, 0xbe, 0x55, 0xf1, 0x86, 0x3f,
  0x07, 0x74, 0x40, 0x3a, 0x92, 0xd3, 0xac, 0x3e, 0xd7, 0x1d, 0xb6, 0xbe,
  0x90, 0xb4, 0x3c, 0xbe, 0xb4, 0xaa, 0xed, 0x3d, 0x50, 0x94, 0xb9, 0x3d,
  0xa0, 0x0e, 0x22, 0xbd, 0x26, 0xf6, 0x12, 0xbd, 0x95, 0x12, 0x38, 0x3f,
  0x7d, 0xd8, 0x8b, 0x3d, 0x29, 0xf0, 0xf1, 0xbe, 0xfa, 0x08, 0xcc, 0xbc,
  0x25, 0x58, 0x84, 0xbd, 0x40, 0x76, 0x8b, 0x3e, 0xaa, 0x42, 0xd7, 0xbd,
  0x6c, 0xf9, 0x82, 0x3f, 0xf3, 0x5d, 0xcb, 0x3b, 0x5b, 0x13, 0xa0, 0x3e,
  0x08, 0xa2, 0xb9, 0xbe, 0x4f, 0x25, 0xea, 0xbd, 0x71, 0x83, 0x83, 0x3e,
  0xe0, 0x7b, 0x8f, 0x3e, 0xf4, 0x73, 0x16, 0xbc, 0xf3, 0x8a, 0x2f, 0xbc,
  0xeb, 0x96, 0x4a, 0x3f, 0xc3, 0x5c, 0x79, 0xbd, 0xd1, 0xfa, 0x5a, 0xbe,
  0x79, 0xce, 0x59, 0xbd, 0x1f, 0x49, 0xa1, 0xbd, 0xfd, 0x6d, 0x10, 0xbe,
  0x3c, 0x00, 0x79, 0xbe, 0x45, 0x8e, 0x66, 0x3f, 0xa2, 0x1a, 0x52, 0x3d,
  0xdc, 0x1d, 0x89, 0x3e, 0xe6, 0x4e, 0x9f, 0xbd, 0x46, 0x95, 0xf5, 0xbe,
  0x12, 0xea, 0xe6, 0x3d, 0xff, 0x17, 0xa5, 0x3e, 0x9b, 0x52, 0xf2, 0x3c,
  0x56, 0x54, 0x36, 0xbc, 0xe8, 0x32, 0x84, 0x3f, 0x05, 0xfc, 0x2f, 0xbd,
  0x6b, 0x33, 0x06, 0xbf, 0xf8, 0xb7, 0x82, 0xba, 0x45, 0xe2, 0xa1, 0xbd,
  0x1d, 0xa7, 0x27, 0x3e, 0x49, 0x5b, 0x62, 0xbe, 0x93, 0x3f, 0x9c, 0x3f,
  0xfb, 0x20, 0x3b, 0xbe, 0x32, 0x18, 0x62, 0x3e, 0x87, 0x46, 0xe1, 0x3d,
  0x02, 0x1c, 0xe1, 0xbe, 0x31, 0xdf, 0x84, 0x3d, 0x69, 0x67, 0x7a, 0x3d,
  0x66, 0x63, 0xea, 0x3d, 0x05, 0xb7, 0x59, 0xbb, 0xbb, 0x56, 0x84, 0x3f,
  0xa8, 0x4e, 0xde, 0xbd, 0x94, 0x32, 0xd4, 0xbe, 0xd9, 0xef, 0x98, 0xbb,
  0xe0, 0x63, 0x48, 0xbe, 0xf8, 0xf7, 0x7d, 0x3d, 0x09, 0x70, 0x84, 0x3c,
  0xf0, 0x25, 0x52, 0x3f, 0x0f, 0xb8, 0x83, 0xbe, 0x68, 0xfd, 0x83, 0x3e,
  0xeb, 0x37, 0xd8, 0xbc, 0x51, 0x01, 0x8e, 0xbd, 0xd0, 0x2b, 0x12, 0x3e,
  0x1b, 0xab, 0xb9, 0x3b, 0xc9, 0x92, 0x77, 0xbe, 0x51, 0x45, 0xdc, 0xbc,
  0xcb, 0xbf, 0x81, 0x3f, 0x3d, 0x90, 0xe1, 0xbd, 0xdb, 0x18, 0xce, 0xbe,
  0xca, 0xf5, 0xc8, 0xb9, 0x48, 0x9b, 0x1d, 0x3e, 0xea, 0x5a, 0x3e, 0xbd,
  0x25, 0x7b, 0x5e, 0x3e, 0x45, 0x37, 0x87, 0x3f, 0x2d, 0x47, 0x97, 0xbe,
  0x1e, 0x47, 0x81, 0x3e, 0x0b, 0x4c, 0xeb, 0x3d, 0x83, 0xa4, 0xa2, 0xbe,
  0x51, 0x8b, 0x2a, 0x3e, 0x42, 0x3d, 0xfd, 0x3d, 0x04, 0x3d, 0xc7, 0xbe,
  0x8a, 0x39, 0xe9, 0x3a, 0x95, 0x65, 0x7a, 0x3f, 0xbe, 0x01, 0x36, 0xbd,
  0x73, 0xdf, 0xe4, 0xbe, 0x5b, 0xc0, 0x79, 0x3d, 0xc9, 0xfe, 0xb4, 0xbd,
  0x83, 0x6f, 0x44, 0xbe, 0x42, 0xc1, 0xec, 0x3d, 0x1b, 0xb4, 0xad, 0x3f,
  0x0c, 0x94, 0x90, 0xbe, 0x1f, 0x3e, 0x34, 0x3e, 0x09, 0x65, 0x17, 0x3d,
  0x19, 0x95, 0x24, 0xbe, 0x7e, 0x6f, 0xdf, 0xbd, 0x81, 0x93, 0x3a, 0x3e,
  0x11, 0x5c, 0xe9, 0xbe, 0x5e, 0xfc, 0xac, 0x3d, 0x86, 0xa6, 0x9f, 0x3f,
  0x8e, 0x7c, 0x8e, 0xbd, 0x08, 0x33, 0x35, 0xbf, 0x0a, 0x6a, 0xce, 0x3c,
  0x9e, 0x80, 0x88, 0xbe, 0x56, 0x9d, 0xd0, 0xbe, 0x38, 0x56, 0xe3, 0x3c,
  0xed, 0x6e, 0x51, 0x3f, 0x74, 0x2c, 0xeb, 0xbe, 0xb6, 0x8e, 0x60, 0x3c,
  0xe6, 0x3e, 0xdb, 0xbc, 0x4a, 0x43, 0x6f, 0xbe, 0xb2, 0xd8, 0x58, 0x3d,
  0xa1, 0x3c, 0x5d, 0xbd, 0xdf, 0x16, 0x26, 0xbf, 0x8c, 0x44, 0x35, 0x3e,
  0xec, 0x14, 0x4e, 0x3f, 0xb3, 0x60, 0xc6, 0xbe, 0x94, 0xbe, 0xd3, 0xbe,
  0x71, 0x88, 0x06, 0x3e, 0x2e, 0x05, 0xba, 0xbd, 0xea, 0x87, 0xef, 0x3d,
  0x95, 0x2e, 0x98, 0x3e, 0x0e, 0x03, 0xf8, 0xbd, 0x10, 0xb9, 0x1e, 0xbe,
  0x8e, 0xb3, 0xde, 0x3c, 0x01, 0x81, 0x45, 0x3d, 0xa4, 0x74, 0xb8, 0x3d,
  0x19, 0x6b, 0xd9, 0xbe, 0x3c, 0x13, 0x27, 0x3e, 0x56, 0x45, 0x20, 0xbf,
  0xbd, 0xe6, 0xba, 0x3e, 0x0b, 0xf1, 0x8a, 0x3f, 0xcb, 0xf9, 0x1e, 0xbe,
  0x07, 0xd3, 0x7d, 0xbf, 0xb2, 0x40, 0xf3, 0x3e, 0x8d, 0x8b, 0x93, 0xbe,
  0x1a, 0x71, 0xff, 0xbe, 0x8e, 0xee, 0x89, 0x3d, 0x55, 0x2d, 0xf1, 0xbe,
  0xc1, 0xe7, 0x9d, 0xbe, 0x34, 0xf5, 0x9b, 0x3d, 0x61, 0xba, 0x98, 0xbe,
  0x2e, 0x75, 0xce, 0xbe, 0xae, 0xe3, 0x0b, 0xbe, 0x18, 0xcc, 0x4b, 0xbe,
  0xf3, 0x86, 0xa3, 0xbe, 0x2d, 0xea, 0xa1, 0xbd, 0x4f, 0x16, 0x31, 0xbe,
  0xf4, 0x39, 0xe0, 0xbd, 0x03, 0x24, 0x1c, 0xbf, 0xeb, 0x95, 0x50, 0xbe,
  0x70, 0xa4, 0x84, 0xbe, 0x78, 0x47, 0xe3, 0xbe, 0x3b, 0x6d, 0x97, 0xbd,
  0xfd, 0x65, 0xcd, 0x3e, 0xf3, 0xc2, 0xb5, 0xbe, 0xe1, 0x59, 0xc8, 0x3c,
  0xcb, 0x76, 0xde, 0xbd, 0x98, 0x9f, 0x15, 0xbf, 0x5d, 0xc1, 0x0d, 0xbe,
  0x3d, 0x86, 0x9d, 0xbe, 0x99, 0xa0, 0xf0, 0xbe, 0x2e, 0xd3, 0x14, 0xbd,
  0x66, 0x8b, 0x25, 0x3e, 0x8e, 0xef, 0xe9, 0xbd, 0x43, 0xe5, 0x65, 0xbf,
  0x3e, 0x83, 0x8d, 0xbd, 0xaf, 0xd5, 0x10, 0xbe, 0x0e, 0xce, 0x57, 0xbe,
  0xab, 0xea, 0x2b, 0x3d, 0x84, 0xa5, 0x2a, 0x3f, 0x11, 0x4f, 0xd9, 0x3c,
  0x95, 0x35, 0x95, 0x3d, 0x4a, 0xc2, 0xbf, 0xbd, 0x56, 0xf1, 0x65, 0x3c,
  0xcf, 0x7e, 0xee, 0x3d, 0xc2, 0xe7, 0xcc, 0x3d, 0xaf, 0x82, 0x99, 0xbe,
  0x70, 0x3b, 0x29, 0xbd, 0x64, 0x94, 0xce, 0x3d, 0xdc, 0xab, 0x98, 0xbc,
  0x52, 0xb4, 0x38, 0xbf, 0x64, 0xc3, 0xcf, 0xbc, 0x12, 0x15, 0x31, 0xbe,
  0xa9, 0xa2, 0xd2, 0xbe, 0x44, 0x6d, 0x43, 0xbe, 0x83, 0xcc, 0x24, 0x3f,
  0x49, 0x19, 0x36, 0x3d, 0x25, 0xcb, 0x35, 0x3e, 0x9a, 0x94, 0x6f, 0xbd,
  0x2a, 0x9e, 0xfc, 0x3d, 0x67, 0x5f, 0xb3, 0x3e, 0x19, 0x8b, 0xef, 0x3d,
  0x09, 0xfb, 0xf6, 0xbd, 0xde, 0x34, 0x3f, 0x3c, 0xca, 0x1b, 0xbb, 0xbe,
  0xc4, 0xae, 0x75, 0x3d, 0x5e, 0x99, 0x47, 0xbf, 0x9c, 0xcd, 0x4e, 0xbd,
  0x64, 0xc7, 0x19, 0xbe, 0x64, 0xbd, 0x0e, 0x3d, 0x95, 0x5f, 0xf5, 0xbd,
  0x6b, 0x92, 0xee, 0x3e, 0xfa, 0xee, 0x51, 0x3e, 0xa2, 0x34, 0x23, 0x3e,
  0xa3, 0x25, 0xf0, 0xbd, 0xf2, 0xeb, 0x61, 0x3e, 0x6e, 0x16, 0x22, 0x3e,
  0xdd, 0x10, 0xd1, 0x3d, 0x1e, 0x6a, 0xc3, 0xbd, 0x63, 0x9e, 0x8b, 0xbc,
  0xca, 0xd9, 0x16, 0xbe, 0x2d, 0x2a, 0x24, 0x3e, 0x5e, 0xe8, 0x06, 0xbf,
  0x05, 0x05, 0xc4, 0xbb, 0xf9, 0xf6, 0x87, 0x3c, 0xfd, 0x77, 0x52, 0x3d,
  0xa8, 0xe7, 0xbd, 0xbe, 0x8c, 0x98, 0x7e, 0xbe, 0xde, 0x65, 0x53, 0x3c,
  0x32, 0x43, 0x14, 0x3e, 0xcf, 0x81, 0xb2, 0xbe, 0xc5, 0xdf, 0x32, 0x3e,
  0x1c, 0xba, 0xb2, 0x3d, 0x44, 0x03, 0x54, 0x3e, 0x8e, 0xf2, 0xa5, 0x3d,
  0x4b, 0xc5, 0x20, 0xbd, 0xe4, 0x49, 0xd9, 0xbe, 0xd8, 0xfb, 0x66, 0xbe,
  0x54, 0x5d, 0x19, 0xbe, 0x99, 0x06, 0x8c, 0xbd, 0x6b, 0xad, 0xe0, 0xbd,
  0x6b, 0xbd, 0x09, 0xbd, 0x73, 0xa8, 0x85, 0xbe, 0x74, 0x6b, 0xda, 0x3e,
  0x90, 0xfd, 0x30, 0x3e, 0x2f, 0xc8, 0x87, 0x3e, 0x7e, 0xeb, 0x50, 0xbe,
  0x06, 0xec, 0x67, 0x3e, 0x3d, 0x92, 0x0c, 0x3e, 0xf4, 0x63, 0xaf, 0x3e,
  0xca, 0x9e, 0x90, 0xbe, 0xe4, 0x61, 0x03, 0x3d, 0xe8, 0xc6, 0x34, 0xbe,
  0x1e, 0xd9, 0x31, 0xbe, 0xd4, 0x79, 0x88, 0xbc, 0xb5, 0x9b, 0x07, 0xbe,
  0x63, 0x37, 0x7f, 0x3e, 0xbc, 0x18, 0x3c, 0xbe, 0xb0, 0xab, 0xa5, 0xbe,
  0x83, 0xf6, 0xb7, 0x3e, 0x72, 0xee, 0x36, 0x3e, 0x76, 0xf7, 0x8b, 0x3e,
  0x94, 0x71, 0x5e, 0xbe, 0x57, 0x1a, 0xf0, 0xbd, 0x4d, 0xae, 0xb2, 0xbd,
  0xef, 0x2c, 0x9b, 0x3e, 0x8d, 0x2a, 0x9a, 0xbe, 0x31, 0xec, 0x21, 0xbb,
  0xf5, 0x0e, 0x53, 0xbc, 0x44, 0x90, 0x4c, 0xbe, 0x82, 0xc4, 0xd7, 0xbe,
  0x34, 0x6c, 0x0d, 0xbe, 0x59, 0x06, 0xa1, 0x3d, 0x87, 0x6c, 0x91, 0xbe,
  0x02, 0xd4, 0x39, 0xbe, 0x75, 0xf3, 0x53, 0x3f, 0x72, 0x0a, 0x55, 0xbc,
  0xb2, 0x18, 0x76, 0x3e, 0x77, 0x5b, 0x31, 0xbe, 0x9c, 0xa7, 0x15, 0xbe,
  0x05, 0xc9, 0xd2, 0x3d, 0x82, 0xa9, 0x58, 0x3e, 0xbb, 0x8c, 0xa5, 0xbd,
  0x42, 0xcd, 0xec, 0x3c, 0xee, 0x24, 0x88, 0xbe, 0x2c, 0x7f, 0xd3, 0xbc,
  0x64, 0x9d, 0x31, 0xbf, 0x63, 0x93, 0xc1, 0xbd, 0x6e, 0x6c, 0xac, 0xbd,
  0xfd, 0x0a, 0x89, 0x3b, 0x00, 0xe6, 0xc9, 0xbe, 0x74, 0x98, 0x39, 0x3e,
  0x30, 0x38, 0xf6, 0xbd, 0x80, 0x26, 0x4c, 0x3e, 0x85, 0xdc, 0xd7, 0xbd,
  0x89, 0xb9, 0xbe, 0xbd, 0x0d, 0xe5, 0xc1, 0x3d, 0x25, 0x74, 0x9c, 0x3d,
  0x2d, 0x82, 0x2a, 0xbe, 0x22, 0x4f, 0xad, 0x3c, 0xf4, 0xea, 0x66, 0x3e,
  0xa6, 0xa6, 0x14, 0x3d, 0x2b, 0xb0, 0x3b, 0xbf, 0x1b, 0x72, 0x19, 0xbe,
  0xe8, 0x90, 0x7c, 0xbe, 0x10, 0x61, 0xbc, 0xbe, 0x1d, 0x08, 0xc7, 0x3d,
  0x25, 0x11, 0x18, 0x3f, 0x00, 0x43, 0xaf, 0xbc, 0xd4, 0x69, 0xa3, 0x3e,
  0x53, 0x8c, 0xc5, 0xbd, 0xda, 0x2c, 0xe5, 0xbe, 0xce, 0xa3, 0xd1, 0x3b,
  0xbb, 0x6b, 0x58, 0x3d, 0x13, 0xa6, 0x54, 0xbe, 0x20, 0x47, 0xe5, 0x3d,
  0x4b, 0x0f, 0xab, 0x3e, 0xde, 0xc2, 0xe4, 0xbd, 0x80, 0xb4, 0x60, 0xbf,
  0xb9, 0xa9, 0x4a, 0xbd, 0x92, 0xf8, 0x8d, 0xbd, 0x6a, 0xf2, 0xfa, 0xbd,
  0xfb, 0x9d, 0x57, 0xbe, 0xd5, 0x82, 0x93, 0x3e, 0x2e, 0x07, 0xdb, 0xbd,
  0x68, 0x0e, 0x55, 0x3e, 0xa4, 0xd4, 0x07, 0x3e, 0x22, 0xa4, 0xe6, 0xbe,
  0xdf, 0x48, 0xa7, 0xbd, 0x58, 0x9e, 0x7d, 0x3d, 0x1a, 0x97, 0x0c, 0xbf,
  0x95, 0xeb, 0x1b, 0x3e, 0xc7, 0xbd, 0x35, 0xbd, 0x9d, 0xc1, 0x5c, 0x3e,
  0x8a, 0x26, 0x41, 0xbf, 0x59, 0xfe, 0xa6, 0xbd, 0xfb, 0x06, 0x03, 0xbe,
  0xe1, 0xb4, 0x0e, 0xbf, 0xa9, 0x0b, 0x74, 0xbd, 0x0c, 0x8d, 0x85, 0x3e,
  0x5a, 0x10, 0x1b, 0x3d, 0xcb, 0x91, 0x14, 0xbe, 0x74, 0xca, 0x99, 0x3e,
  0x30, 0x4d, 0xe2, 0xbe, 0x88, 0xf2, 0xd7, 0xbd, 0x8b, 0x6d, 0xcb, 0x3c,
  0x40, 0x36, 0x99, 0xbe, 0x9e, 0x7a, 0x06, 0x3d, 0x3b, 0x54, 0x82, 0x3d,
  0xdf, 0xbf, 0x47, 0xbe, 0x3a, 0x9c, 0x34, 0xbf, 0x91, 0x88, 0xd9, 0x3e,
  0xa1, 0x95, 0x90, 0xbd, 0xb4, 0x71, 0x82, 0x3e, 0x67, 0xb9, 0x94, 0xbe,
  0xaa, 0x53, 0xb3, 0x3d, 0x6f, 0xc4, 0xa6, 0xbc, 0x7f, 0xa2, 0xc6, 0xbb,
  0x3b, 0x34, 0xd9, 0x3e, 0xb5, 0x6e, 0x6a, 0xbd, 0xf9, 0x4b, 0xfb, 0x3d,
  0xc0, 0xf6, 0x60, 0x3d, 0x4d, 0xed, 0xbb, 0x3d, 0xb9, 0x1b, 0x3f, 0x3e,
  0xe5, 0x77, 0xb0, 0xbd, 0xe5, 0x51, 0x46, 0xbd, 0x6d, 0x81, 0x34, 0xbf,
  0x4f, 0x66, 0xb9, 0x3e, 0xc4, 0xaf, 0x3c, 0xbf, 0x40, 0xbc, 0xbf, 0x3e,
  0x8a, 0x92, 0x97, 0xbe, 0x24, 0xc5, 0x41, 0xbf, 0xa5, 0x70, 0xf8, 0x3d,
  0x29, 0x39, 0x5f, 0xbd, 0x2a, 0x15, 0xef, 0xbe, 0xf6, 0x30, 0x8b, 0x3c,
  0xf7, 0x5d, 0x80, 0xbe, 0x1e, 0x84, 0xc7, 0x3d, 0x49, 0x43, 0xc8, 0xbe,
  0xb8, 0x81, 0xe2, 0x3d, 0x0f, 0x30, 0x3b, 0x3d, 0x3f, 0xd0, 0x64, 0xbe,
  0xf1, 0x15, 0x5e, 0xbc, 0x49, 0x6b, 0x12, 0xbd, 0x96, 0x30, 0xf0, 0xbc,
  0xe0, 0xdd, 0x45, 0x3e, 0x21, 0x0e, 0x2b, 0xbe, 0x07, 0x11, 0x7c, 0x3d,
  0xd7, 0x4a, 0x8e, 0x3d, 0x70, 0x3b, 0x24, 0xbd, 0xa4, 0xfe, 0x26, 0xbe,
  0x28, 0x1f, 0x5c, 0xbb, 0x66, 0x9f, 0xca, 0xbc, 0x7f, 0xbd, 0x6f, 0xbe,
  0xcd, 0x7c, 0xc4, 0x3e, 0xa8, 0x24, 0x84, 0x3d, 0x47, 0xcf, 0x98, 0xbd,
  0x15, 0x1d, 0xac, 0xbd, 0x79, 0xdf, 0xd2, 0x3d, 0xb9, 0x38, 0x45, 0x3c,
  0x07, 0x3c, 0xc1, 0x3c, 0xdf, 0x07, 0x3f, 0x3e, 0x44, 0x39, 0x16, 0x3e,
  0x25, 0x27, 0x47, 0xbe, 0xd3, 0xab, 0x04, 0x3e, 0xcc, 0xce, 0xa5, 0x3d,
  0x82, 0xd7, 0xd3, 0x3c, 0x8d, 0xd5, 0x33, 0x3d, 0x46, 0xa2, 0x22, 0x3d,
  0xb3, 0x01, 0x18, 0x3e, 0xf0, 0x37, 0x61, 0x3d, 0x73, 0xd0, 0xb7, 0xbd,
  0x32, 0x7b, 0xba, 0x3c, 0x89, 0x05, 0xc0, 0x3d, 0x89, 0x96, 0x14, 0xbe,
  0x30, 0x49, 0xe7, 0x3d, 0x3f, 0xd2, 0x86, 0x3e, 0x98, 0xbe, 0x12, 0x3e,
  0x90, 0x14, 0xbe, 0x3d, 0x05, 0x22, 0xc1, 0xbe, 0x9c, 0xe1, 0x68, 0x3d,
  0xef, 0xc3, 0xcc, 0x3d, 0x22, 0x07, 0x78, 0xbc, 0xf3, 0x6a, 0x86, 0x3d,
  0x92, 0x30, 0x41, 0xbe, 0xd0, 0xcb, 0x57, 0x3e, 0x68, 0x4b, 0x3a, 0x3d,
  0xd7, 0x8f, 0x3d, 0xbe, 0x09, 0xf2, 0x1f, 0x3c, 0x43, 0x91, 0x8b, 0xbc,
  0xf9, 0x43, 0x10, 0xbd, 0x5c, 0xb4, 0xd9, 0x3d, 0x7b, 0x07, 0xab, 0x3e,
  0x42, 0xe9, 0xb6, 0x3e, 0xf7, 0x18, 0x95, 0xbd, 0xf4, 0x9a, 0x13, 0xbf,
  0x4c, 0xd3, 0x84, 0xbc, 0x84, 0x95, 0x3b, 0x3e, 0x68, 0x56, 0x81, 0xbe,
  0xf9, 0x59, 0xd5, 0xbd, 0x2b, 0x00, 0x3b, 0xbe, 0xf7, 0x21, 0xa7, 0x3e,
  0xbc, 0xec, 0x00, 0xbc, 0x84, 0xe3, 0x23, 0xbe, 0x52, 0x82, 0x65, 0xbe,
  0xc6, 0xc8, 0xe6, 0xbc, 0xcf, 0x33, 0x7c, 0xbc, 0x4f, 0x33, 0xcf, 0x3d,
  0xed, 0xb6, 0xc7, 0x3e, 0x16, 0xee, 0x2c, 0x3d, 0x55, 0x9b, 0x55, 0x3e,
  0x3f, 0xd7, 0xd5, 0xbe, 0xe2, 0x7d, 0x1f, 0xbf, 0xd5, 0xe3, 0x65, 0x3e,
  0xf1, 0x5a, 0x2f, 0x3e, 0xa2, 0x7a, 0xae, 0xbe, 0x30, 0x4a, 0x61, 0x3c,
  0x1c, 0x23, 0xbd, 0x3e, 0x67, 0x6f, 0x94, 0xbe, 0xfe, 0x96, 0x74, 0xbe,
  0x87, 0x86, 0x67, 0xbe, 0xca, 0x51, 0x83, 0xbe, 0x73, 0x15, 0x84, 0xbc,
  0x4f, 0x90, 0xb1, 0x3d, 0x13, 0x47, 0x8f, 0x3e, 0xa0, 0xa6, 0x82, 0x3d,
  0x3c, 0x4f, 0xa9, 0x3e, 0x13, 0xfb, 0xa1, 0xbe, 0x71, 0x20, 0xe8, 0xbe,
  0x12, 0xfe, 0x6e, 0x3d, 0x22, 0x70, 0xb0, 0xbd, 0x1f, 0xa9, 0x4a, 0xbd,
  0xda, 0xea, 0x83, 0xbe, 0xd4, 0x42, 0xb2, 0x3e, 0x18, 0xec, 0x85, 0xbe,
  0x24, 0xc1, 0x44, 0xbe, 0x63, 0x06, 0x82, 0xbe, 0xc9, 0x5b, 0x7c, 0xbe,
  0x73, 0x93, 0xc4, 0xbd, 0x98, 0x37, 0x40, 0xbd, 0xda, 0x17, 0xb3, 0x3e,
  0xe0, 0x71, 0x99, 0xbd, 0x5c, 0x57, 0xda, 0x3a, 0xcb, 0x9b, 0xc6, 0xbe,
  0x89, 0xfd, 0x06, 0xbf, 0xfa, 0x75, 0xf5, 0x3d, 0xfb, 0x93, 0xf8, 0xbe,
  0x3a, 0x2b, 0x78, 0xbd, 0xaf, 0xb5, 0xf3, 0xbd, 0x42, 0xa3, 0xe0, 0x3e,
  0x4e, 0xe4, 0x73, 0xbe, 0xa8, 0x58, 0x79, 0xbe, 0x47, 0xc1, 0x92, 0x3d,
  0x4f, 0xcd, 0xc4, 0xbe, 0x1f, 0xaa, 0xac, 0xbd, 0x33, 0x87, 0xaf, 0x3d,
  0xb9, 0x7f, 0x52, 0xbe, 0xf2, 0x1a, 0xda, 0xbd, 0xf1, 0x0c, 0xab, 0x3d,
  0xfb, 0x1f, 0x7e, 0xbe, 0x1a, 0xc9, 0x05, 0xbf, 0xaa, 0xc8, 0x81, 0xbd,
  0x68, 0xcb, 0x2f, 0xbe, 0x36, 0x81, 0x96, 0xbe, 0xdf, 0x6f, 0x21, 0x3d,
  0x71, 0xc2, 0xf3, 0x3d, 0x7f, 0xf3, 0xb9, 0xbe, 0xb4, 0x90, 0xb0, 0xbe,
  0xc7, 0xf0, 0x0f, 0x3d, 0x82, 0x24, 0xb5, 0xbe, 0xb4, 0x28, 0xd6, 0x3c,
  0xaa, 0x82, 0xb6, 0xbd, 0x7f, 0x2a, 0x3b, 0xbd, 0xff, 0xf4, 0x19, 0x3d,
  0x10, 0x0c, 0x76, 0x3e, 0x06, 0xf7, 0x8a, 0xbe, 0x26, 0xfb, 0xaf, 0xbe,
  0x72, 0xf2, 0xdf, 0xbd, 0xd2, 0x0d, 0x2c, 0x3e, 0xdb, 0x2f, 0x84, 0x3d,
  0xba, 0xea, 0x75, 0xbd, 0xf4, 0x4a, 0x42, 0xbe, 0xab, 0x8b, 0x16, 0xbf,
  0x24, 0x24, 0x98, 0xbe, 0x4e, 0xac, 0x07, 0x3e, 0x2a, 0xf6, 0x78, 0xbe,
  0x27, 0xfa, 0xee, 0x3d, 0x2c, 0x31, 0xc9, 0xbd, 0x20, 0x2e, 0x37, 0xbe,
  0xdb, 0x1f, 0x24, 0x3e, 0x44, 0x8e, 0xa4, 0x3e, 0x6a, 0x66, 0x83, 0xbc,
  0x82, 0x34, 0xb7, 0xbe, 0xe4, 0xea, 0x87, 0xbc, 0xf9, 0xc3, 0x11, 0xbe,
  0xfb, 0x3e, 0x05, 0x3e, 0xb7, 0x1c, 0x75, 0xbe, 0x52, 0xc5, 0x39, 0xbe,
  0x92, 0x39, 0x28, 0xbf, 0xe8, 0xc8, 0x4d, 0xbd, 0xe1, 0xa2, 0x42, 0xbe,
  0xf1, 0x06, 0xcc, 0xbe, 0x66, 0xb2, 0xad, 0x3d, 0x3f, 0x86, 0xba, 0xbc,
  0x30, 0x32, 0x9c, 0xbe, 0xf0, 0xd1, 0x65, 0x3e, 0x8e, 0x9d, 0xcf, 0x3b,
  0x0f, 0x92, 0x0e, 0xbe, 0x94, 0xce, 0x5e, 0x3e, 0x33, 0x7c, 0x1a, 0xbe,
  0x5f, 0xd9, 0x79, 0xbe, 0xc3, 0xb6, 0x94, 0x3e, 0x80, 0x40, 0x4a, 0xbe,
  0x64, 0x85, 0x9c, 0xbe, 0x93, 0x78, 0x86, 0xbd, 0x77, 0xb0, 0xfb, 0x3d,
  0x5f, 0xc6, 0x2c, 0xbe, 0xc1, 0x1c, 0x42, 0xbe, 0xc0, 0x8e, 0x18, 0x3d,
  0x9e, 0x65, 0xdf, 0xbd, 0xa2, 0x87, 0x59, 0x3e, 0xcf, 0x52, 0x05, 0x3e,
  0xe9, 0x37, 0xb9, 0x3d, 0xc0, 0xd1, 0x9e, 0xbe, 0xc5, 0x13, 0xd5, 0x3d,
  0x40, 0xe8, 0xce, 0xbc, 0x86, 0xc2, 0x57, 0xbe, 0xeb, 0x9d, 0x0b, 0x3d,
  0x63, 0x32, 0xbe, 0xbd, 0x0b, 0x7b, 0x10, 0xbd, 0xe9, 0x10, 0x1a, 0x3e,
  0x98, 0xf2, 0xf3, 0x3d, 0x63, 0xda, 0xfe, 0xbd, 0x6f, 0xc9, 0x15, 0xbe,
  0x81, 0xe9, 0x0a, 0xbe, 0xe7, 0x78, 0x32, 0x3d, 0x89, 0xa4, 0xf3, 0x3e,
  0x31, 0xef, 0x63, 0x3d, 0x58, 0x57, 0x96, 0x3e, 0x42, 0xef, 0x95, 0x3e,
  0xe3, 0x23, 0x10, 0xbe, 0x05, 0x19, 0xb9, 0x3d, 0xb1, 0xcd, 0xce, 0xbc,
  0xbc, 0x8e, 0x93, 0xbe, 0x6c, 0x08, 0x14, 0xbd, 0x78, 0x56, 0x8a, 0x3e,
  0xd8, 0x7c, 0x04, 0xbd, 0x37, 0xaf, 0x67, 0x3d, 0x64, 0xf9, 0xb9, 0x3d,
  0x4a, 0x4c, 0x45, 0xbe, 0x65, 0x22, 0xa9, 0xbd, 0x3e, 0x92, 0x93, 0xbb,
  0x3f, 0x61, 0x7f, 0xbd, 0xa3, 0xd8, 0x72, 0xbe, 0x2b, 0xd8, 0x95, 0x3e,
  0xf4, 0x35, 0x63, 0x3e, 0x80, 0x7a, 0xa8, 0xbe, 0xdc, 0xbb, 0x31, 0xbe,
  0x14, 0x80, 0xd3, 0xbe, 0xe4, 0xc1, 0xe5, 0xbe, 0x81, 0xaa, 0x66, 0xbe,
  0xd0, 0x12, 0x03, 0xbf, 0x4c, 0x7f, 0x93, 0xbe, 0x55, 0xc5, 0x85, 0xbe,
  0xae, 0xc8, 0xfb, 0x3f, 0xbe, 0x01, 0xec, 0x3a, 0x23, 0xa7, 0x76, 0xbe,
  0x96, 0x52, 0xfe, 0xbd, 0x73, 0x60, 0x08, 0xbd, 0x0e, 0xd8, 0xf9, 0x3c,
  0x0c, 0x97, 0x15, 0x3f, 0x4b, 0xc7, 0x05, 0x3f, 0x4c, 0xd9, 0x05, 0xbe,
  0xd1, 0x49, 0x93, 0xbe, 0xb2, 0xce, 0x4c, 0x3e, 0x0d, 0xe0, 0xa1, 0xbb,
  0xb2, 0xe0, 0xb0, 0xbd, 0x01, 0xcd, 0xa6, 0xbe, 0xd8, 0x1d, 0x11, 0xbf,
  0xdf, 0x1f, 0xbe, 0xbe, 0x40, 0x0b, 0x48, 0x40, 0x93, 0xe2, 0xf1, 0xbd,
  0x5c, 0x4b, 0xaf, 0xbc, 0x29, 0xf3, 0x9c, 0xbd, 0x05, 0xb0, 0xcb, 0xbd,
  0x97, 0x85, 0x24, 0xbe, 0xa7, 0x5d, 0xe1, 0x3e, 0x4c, 0x51, 0x8f, 0x3f,
  0xda, 0x58, 0xaf, 0xbd, 0xb8, 0xe0, 0x87, 0xbd, 0xb9, 0xdd, 0x64, 0xbe,
  0x2c, 0x4d, 0x87, 0xbe, 0x4d, 0x98, 0x24, 0x3c, 0xc1, 0x8c, 0x9c, 0x3c,
  0x3c, 0x5d, 0x85, 0xbe, 0x42, 0x60, 0x78, 0xbe, 0x64, 0xdc, 0x48, 0x40,
  0x37, 0x17, 0xea, 0x3f, 0x7b, 0xf1, 0x25, 0xbe, 0x64, 0x93, 0x4e, 0xbe,
  0xa2, 0xcd, 0xb3, 0x3c, 0xc9, 0xe9, 0x26, 0x3d, 0x1d, 0x86, 0xd7, 0x3e,
  0x2d, 0x07, 0x2a, 0x3f, 0x6d, 0xfc, 0x7a, 0xbc, 0xc4, 0x47, 0x33, 0xbe,
  0xeb, 0xa6, 0x84, 0xbe, 0x36, 0x86, 0x26, 0xbd, 0xd6, 0xb8, 0x0b, 0xbd,
  0xe2, 0xd1, 0xfe, 0xbc, 0x92, 0x3c, 0xb4, 0xbe, 0xb1, 0xb1, 0x38, 0xbe,
  0x40, 0xdc, 0x36, 0x3f, 0xfc, 0xfe, 0x10, 0x3f, 0x13, 0xf0, 0xd0, 0xbe,
  0xee, 0x21, 0x89, 0xbe, 0x26, 0x07, 0xc0, 0xbd, 0xee, 0xa9, 0x38, 0xbc,
  0x36, 0x15, 0x0e, 0x3f, 0xa5, 0x74, 0x46, 0x3f, 0x7a, 0xf4, 0x0c, 0xbc,
  0x01, 0x1e, 0x95, 0xbe, 0x9e, 0x3b, 0x37, 0xbe, 0x3e, 0x0d, 0x78, 0xbe,
  0x1a, 0x31, 0xb6, 0xbd, 0xff, 0x9e, 0xbf, 0x3d, 0xa3, 0xa3, 0xb1, 0xbe,
  0x9a, 0xd4, 0x52, 0xbe, 0x6f, 0x76, 0xae, 0x3f, 0x9c, 0xc9, 0x94, 0xbd,
  0x18, 0xe6, 0x79, 0xbe, 0xbd, 0x6b, 0xb8, 0xbd, 0x48, 0xec, 0x1e, 0x3e,
  0xa2, 0xb0, 0x79, 0x3e, 0x29, 0xde, 0x32, 0x3f, 0xa9, 0x96, 0x79, 0x3f,
  0xc3, 0x37, 0x40, 0xbe, 0x33, 0x3b, 0x21, 0x3d, 0x7d, 0x53, 0x94, 0xbd,
  0x73, 0xd4, 0x9d, 0xbd, 0x8b, 0x3f, 0x4a, 0xbe, 0x22, 0x46, 0xd9, 0xbb,
  0xee, 0x31, 0x4a, 0xbe, 0x26, 0xf5, 0x98, 0xbe, 0x2d, 0xba, 0xc2, 0x3f,
  0xaa, 0xc7, 0xe0, 0x3e, 0xd5, 0xc6, 0xbe, 0xbd, 0xba, 0x6a, 0x96, 0xbe,
  0x56, 0x8e, 0x22, 0xbe, 0x86, 0xbe, 0x32, 0xbe, 0x83, 0xf2, 0xbf, 0x3e,
  0x15, 0x6c, 0xaa, 0x3f, 0x21, 0x41, 0x4d, 0xbe, 0x1b, 0x04, 0xdd, 0xbd,
  0x99, 0xd0, 0xd2, 0xbc, 0x2c, 0x58, 0x25, 0xbe, 0x5c, 0x67, 0xd3, 0xbd,
  0xa7, 0x9d, 0x85, 0xbd, 0x37, 0xcf, 0xb5, 0xbe, 0x81, 0x97, 0x99, 0xbd,
  0x53, 0x2b, 0x60, 0x3f, 0x41, 0x2e, 0x85, 0x3f, 0x14, 0x8d, 0xb3, 0xbe,
  0xae, 0xae, 0x1b, 0x3b, 0xb5, 0x77, 0x29, 0x3e, 0x26, 0xe3, 0x5a, 0x3d,
  0xba, 0xc1, 0xef, 0x3e, 0x26, 0x16, 0xb1, 0x3f, 0x63, 0x42, 0x67, 0xbd,
  0xe3, 0x28, 0x3d, 0xbe, 0xe1, 0x34, 0xfc, 0xbd, 0x2c, 0x1e, 0x64, 0xbe,
  0xd7, 0xe6, 0x19, 0xbe, 0xee, 0x03, 0x09, 0xbe, 0xb2, 0xe7, 0xd9, 0xbe,
  0x44, 0x9a, 0xcb, 0xbe, 0x31, 0x0f, 0xd0, 0x3f, 0x55, 0x7e, 0x04, 0xbe,
  0xe2, 0x7e, 0x08, 0xbe, 0xfb, 0x90, 0xdb, 0xbd, 0xcb, 0x86, 0xad, 0xbd,
  0x29, 0xae, 0xac, 0xbd, 0xa4, 0xa2, 0xdb, 0x3e, 0xf0, 0x21, 0x3a, 0x3f,
  0xd0, 0xe2, 0x90, 0xbe, 0x0d, 0xe2, 0x1b, 0xbe, 0xa2, 0xcc, 0x94, 0x3d,
  0xce, 0xd5, 0x9d, 0xbe, 0x5b, 0xd9, 0x3a, 0xbd, 0xc2, 0x06, 0x3e, 0xbe,
  0x9d, 0x70, 0xb7, 0xbe, 0x3c, 0x8a, 0x84, 0xbe, 0x23, 0x06, 0xd1, 0x3f,
  0x6d, 0x2e, 0x49, 0xbc, 0x81, 0xbe, 0x39, 0xbe, 0x3a, 0x4e, 0xce, 0x3d,
  0xde, 0x26, 0x03, 0x3e, 0x11, 0x84, 0xe7, 0x3c, 0x50, 0x6f, 0x30, 0x3f,
  0x64, 0xee, 0x70, 0x3f, 0xf6, 0xa4, 0x9b, 0x3d, 0x1d, 0x44, 0x41, 0xbd,
  0x99, 0xa3, 0xa8, 0xbd, 0x63, 0x77, 0xa3, 0xbe, 0x06, 0xe6, 0x9b, 0xbe,
  0xb7, 0x8b, 0x49, 0xbc, 0x02, 0x79, 0x63, 0xbe, 0x66, 0x60, 0x57, 0xbe,
  0x3c, 0x8e, 0x92, 0x3f, 0x37, 0xd6, 0xb5, 0x3e, 0x96, 0x54, 0x88, 0xbe,
  0xf6, 0xe5, 0xa0, 0x3d, 0xa1, 0x8d, 0xfa, 0x3c, 0xd5, 0x7c, 0xdd, 0x3b,
  0xd3, 0x13, 0xac, 0x3f, 0x91, 0xc6, 0x79, 0x3f, 0xb5, 0x05, 0xed, 0xbd,
  0xa1, 0xe2, 0xa3, 0xbd, 0xc6, 0xfc, 0x8b, 0xbe, 0xed, 0x2a, 0x10, 0xbe,
  0x2b, 0xe3, 0x38, 0xbd, 0x03, 0xc6, 0xb6, 0x3d, 0x37, 0x32, 0x3d, 0xbe,
  0x64, 0x37, 0x59, 0xbe, 0x26, 0x43, 0xc5, 0x3f, 0x67, 0xbc, 0xf0, 0x3d,
  0x46, 0x77, 0x40, 0xbe, 0x41, 0xdc, 0x46, 0xbd, 0x5f, 0x90, 0x89, 0x3e,
  0xa6, 0x3e, 0x2b, 0xbe, 0x14, 0xab, 0x2c, 0x3f, 0xd8, 0x5a, 0xc6, 0x3f,
  0x94, 0x28, 0x69, 0xbe, 0x74, 0x07, 0x93, 0xbe, 0x09, 0xe0, 0x77, 0xbe,
  0xe2, 0x8e, 0x94, 0xbb, 0xd0, 0xd2, 0xe9, 0xbd, 0x05, 0x7b, 0xbc, 0xbc,
  0xf2, 0x1f, 0x84, 0xbe, 0x7a, 0xe4, 0x41, 0xbe, 0xee, 0xed, 0x1d, 0x40,
  0xf2, 0x65, 0x3b, 0xbd, 0x54, 0x35, 0xa3, 0xbe, 0xeb, 0x7a, 0x08, 0xbe,
  0x80, 0x58, 0x43, 0xbe, 0xdc, 0x2d, 0xe9, 0xbc, 0xd8, 0xe1, 0x91, 0x3f,
  0xe9, 0xf4, 0x33, 0x3f, 0xa9, 0xae, 0xe2, 0x3d, 0xae, 0x7c, 0x7e, 0xbe,
  0xa1, 0x08, 0xc3, 0xbd, 0x77, 0x6f, 0xab, 0xbd, 0x48, 0xfb, 0xb3, 0xbd,
  0x09, 0xfc, 0xaa, 0x3d, 0xa3, 0x38, 0x83, 0xbe, 0xcd, 0x69, 0x11, 0xbe,
  0x4f, 0xcd, 0x5a, 0x3f, 0x4d, 0xae, 0x71, 0xbd, 0x1d, 0x0d, 0xb1, 0xbd,
  0x7d, 0x0e, 0x08, 0xbe, 0xf4, 0x23, 0xb6, 0x3d, 0x37, 0x17, 0xe0, 0xbe,
  0x32, 0xc0, 0xac, 0x3f, 0x9c, 0x9b, 0xbc, 0x3e, 0xd7, 0xb4, 0x53, 0xbe,
  0xb3, 0x4d, 0x71, 0xbd, 0xcc, 0x4f, 0xb1, 0x3d, 0xc4, 0x2d, 0x36, 0xbe,
  0x33, 0xc2, 0xfb, 0xbe, 0x14, 0x72, 0x3d, 0xbe, 0xff, 0x25, 0xa6, 0xbe,
  0x90, 0x1d, 0x2b, 0xbe, 0xc0, 0x5d, 0x84, 0x3f, 0x24, 0x27, 0xab, 0x3d,
  0xab, 0x50, 0x8a, 0xbe, 0x7e, 0x85, 0x9c, 0xbe, 0x66, 0xa3, 0x91, 0xbc,
  0xfc, 0xf3, 0xe9, 0xbe, 0xf1, 0xa8, 0xd1, 0xbe, 0xbd, 0x24, 0x0c, 0xbd,
  0x45, 0xca, 0x16, 0xbf, 0x8f, 0x80, 0xf9, 0xbe, 0x11, 0xfc, 0x8f, 0xbe,
  0xf5, 0x96, 0x0a, 0xbe, 0xff, 0x75, 0x02, 0xbe, 0xf0, 0x25, 0xd6, 0x3c,
  0x1f, 0xc3, 0x92, 0xbe, 0x9c, 0x02, 0xc3, 0xbe, 0x08, 0x56, 0x7c, 0xbe,
  0x55, 0xaa, 0x31, 0xbd, 0xbd, 0x75, 0x10, 0xbb, 0x36, 0x8f, 0x63, 0x3d,
  0x9c, 0x89, 0xf7, 0xbc, 0x48, 0x2f, 0xc2, 0xbe, 0xc8, 0x9b, 0xb9, 0x3d,
  0x00, 0xca, 0xb8, 0xbd, 0x70, 0x1e, 0xe7, 0xbe, 0x97, 0xdb, 0x7c, 0xbe,
  0x49, 0x86, 0xdd, 0xbe, 0xa3, 0x02, 0x4e, 0xbe, 0x0b, 0x60, 0x01, 0x3e,
  0xe6, 0xf9, 0xd1, 0xbc, 0x51, 0xa5, 0x14, 0xbf, 0x85, 0x96, 0xc0, 0xbe,
  0x20, 0x32, 0x9d, 0xbe, 0xb0, 0x8d, 0x27, 0x3d, 0x8c, 0x88, 0xef, 0xbd,
  0x49, 0x0a, 0x46, 0x3e, 0x61, 0x91, 0x02, 0xbe, 0x62, 0x17, 0x2d, 0xbc,
  0xaf, 0xfb, 0xfa, 0xbc, 0x3d, 0x9a, 0x37, 0xbe, 0x09, 0x03, 0x96, 0xbe,
  0x2c, 0x41, 0xe9, 0xbe, 0xe9, 0xe1, 0xea, 0xbe, 0xfe, 0xd5, 0x86, 0xbe,
  0x4c, 0x00, 0x3d, 0xbd, 0x16, 0xc2, 0x7b, 0x3d, 0xa1, 0xfb, 0xd8, 0xbe,
  0x14, 0xea, 0x24, 0xbf, 0x70, 0xc0, 0x26, 0xbe, 0x85, 0x87, 0xbf, 0x3d,
  0x7f, 0x94, 0x23, 0x3c, 0x4c, 0xe1, 0x61, 0x3e, 0x4b, 0xbc, 0x98, 0xbd,
  0xbf, 0xfc, 0x91, 0xbe, 0x79, 0x10, 0x37, 0x3d, 0x47, 0x3f, 0x82, 0x3e,
  0x68, 0xf3, 0x0f, 0xbf, 0x0b, 0xdc, 0x00, 0xbf, 0x65, 0xa9, 0x9a, 0xbe,
  0xde, 0x2b, 0x22, 0xbe, 0x5b, 0xa5, 0x94, 0xbd, 0x4f, 0x44, 0x55, 0x3d,
  0xa2, 0x84, 0x13, 0xbf, 0x01, 0x3c, 0xcd, 0xbe, 0x66, 0x90, 0x2e, 0xbe,
  0x50, 0xc3, 0x81, 0xbb, 0xf5, 0x2c, 0x2d, 0x3d, 0x41, 0x86, 0x69, 0x3e,
  0x58, 0x81, 0xff, 0xbd, 0x33, 0x60, 0x7c, 0xbe, 0x28, 0x13, 0x8b, 0xbc,
  0x63, 0x47, 0x29, 0x3c, 0x24, 0xd6, 0xa2, 0xbe, 0x10, 0xdb, 0x1b, 0xbe,
  0x85, 0x43, 0x0a, 0xbf, 0x39, 0x5a, 0x5d, 0x3e, 0x60, 0x09, 0x98, 0xbd,
  0x1f, 0x52, 0xa8, 0xbe, 0xec, 0xc7, 0x9a, 0xbe, 0x14, 0x1f, 0xb6, 0xbe,
  0xa6, 0x1a, 0x8f, 0x3d, 0xcb, 0xea, 0x3f, 0xbe, 0xa1, 0xdc, 0xbd, 0xbd,
  0x92, 0xb2, 0xd2, 0x3d, 0xba, 0x74, 0x50, 0xbe, 0x36, 0x21, 0xe9, 0xbd,
  0x8e, 0xb1, 0x36, 0x3e, 0xee, 0x08, 0x6f, 0x3e, 0x38, 0xf5, 0xc1, 0xbe,
  0x19, 0x84, 0xa2, 0xbd, 0xa0, 0x34, 0xd3, 0xbe, 0xe9, 0xd0, 0xdb, 0x3d,
  0x5f, 0xe4, 0x3e, 0xbe, 0xe7, 0xb9, 0x18, 0xbe, 0x63, 0xa6, 0xed, 0xbe,
  0x72, 0x63, 0x28, 0xbd, 0x3b, 0x17, 0xc8, 0x3d, 0x9d, 0x11, 0xd0, 0x3a,
  0x86, 0x46, 0x6a, 0x3c, 0x5c, 0x28, 0x63, 0x3e, 0xfb, 0x98, 0x7c, 0xbe,
  0x7e, 0x8f, 0x2f, 0xbe, 0x57, 0x6f, 0x00, 0xbe, 0x21, 0x1c, 0xbd, 0xbd,
  0xf8, 0xd2, 0xd2, 0xbe, 0xfc, 0x01, 0xb4, 0x3d, 0xf9, 0x7f, 0x41, 0x3d,
  0xe5, 0x5d, 0xde, 0x3d, 0x5e, 0x51, 0x5c, 0x3d, 0x3b, 0xcb, 0x91, 0xbd,
  0x61, 0xea, 0xf4, 0xbe, 0x84, 0xfe, 0x89, 0xbc, 0x41, 0x25, 0xd1, 0xbd,
  0x14, 0xf8, 0x3a, 0x3c, 0x13, 0xb1, 0xd1, 0xbd, 0xe2, 0xd1, 0x86, 0x3d,
  0x67, 0x88, 0xe0, 0xbe, 0x71, 0x34, 0x09, 0x3f, 0x3d, 0x7b, 0x0b, 0xbe,
  0x9a, 0x15, 0xaa, 0x3e, 0xfa, 0xe8, 0xa8, 0x3e, 0x3a, 0x39, 0xbc, 0xbd,
  0x8c, 0xf0, 0x64, 0xbc, 0x41, 0x7a, 0x20, 0x3e, 0x68, 0x9b, 0xe3, 0xbc,
  0x7e, 0x16, 0xd0, 0xbd, 0x40, 0x97, 0x44, 0x3b, 0x4e, 0x53, 0x07, 0x3b,
  0x9c, 0x7c, 0x21, 0xbe, 0x8c, 0xe0, 0x80, 0xbc, 0x4b, 0xab, 0x3e, 0xbd,
  0xd7, 0xb1, 0x0d, 0xbe, 0x2d, 0x11, 0xd6, 0xbe, 0xb1, 0x0b, 0x84, 0x3e,
  0x48, 0xea, 0x29, 0xbe, 0x92, 0xca, 0xe9, 0xbc, 0x0e, 0x92, 0x5e, 0x3e,
  0x11, 0x22, 0x75, 0xbe, 0xc0, 0x22, 0x4a, 0xbe, 0x4e, 0x13, 0xd8, 0x3d,
  0xb4, 0xb0, 0x42, 0xbd, 0xae, 0x52, 0xa2, 0xbb, 0xae, 0xa3, 0x1c, 0x3e,
  0xe2, 0xe5, 0xed, 0xbb, 0x69, 0x00, 0x78, 0xbe, 0xf6, 0x26, 0x6a, 0x3e,
  0x5a, 0xd6, 0x2d, 0xbe, 0xe6, 0xac, 0xb9, 0xbc, 0xe1, 0x6c, 0x44, 0xbe,
  0x61, 0xa9, 0x8a, 0x3e, 0x2a, 0x12, 0x11, 0xbe, 0xc8, 0xd7, 0x53, 0x3d,
  0x27, 0x82, 0x1e, 0x3e, 0xf5, 0x78, 0xae, 0xbc, 0x9d, 0x49, 0x99, 0x3d,
  0x76, 0xda, 0xff, 0x3d, 0x1d, 0x2b, 0x0f, 0xbe, 0x14, 0xc8, 0x8a, 0xbd,
  0x24, 0x41, 0xb6, 0x3e, 0x07, 0x45, 0xf2, 0x3a, 0x13, 0x1c, 0x0a, 0xbe,
  0x3a, 0xda, 0xae, 0x3e, 0xea, 0x3a, 0x46, 0xbe, 0x5b, 0x6e, 0x88, 0x3d,
  0xec, 0xb8, 0x18, 0x3e, 0xb7, 0x73, 0xaa, 0x3e, 0xcc, 0xff, 0x24, 0xbe,
  0xbc, 0xcf, 0xbb, 0x3e, 0x7f, 0x5b, 0xef, 0x3d, 0x0c, 0x4d, 0x36, 0xbb,
  0x15, 0xe2, 0x99, 0xbe, 0x88, 0x85, 0x11, 0x3e, 0x3e, 0x1b, 0x11, 0xbe,
  0x86, 0x1b, 0x84, 0xbd, 0x01, 0xcb, 0xca, 0x3e, 0x5e, 0x7e, 0x7d, 0xbc,
  0xff, 0x85, 0x02, 0xbd, 0xa6, 0x6f, 0xf4, 0x3b, 0x6c, 0x41, 0x19, 0xbe,
  0x79, 0x6d, 0x44, 0x3e, 0xa3, 0xef, 0x8d, 0x3e, 0xd8, 0xcd, 0x22, 0x3e,
  0x11, 0x53, 0xe6, 0x3e, 0x80, 0xb5, 0x15, 0x3d, 0x11, 0x90, 0x01, 0x3e,
  0x57, 0x63, 0x80, 0x3d, 0x28, 0xeb, 0xa5, 0xbe, 0x82, 0x93, 0x97, 0x3e,
  0x29, 0xb6, 0x5a, 0xbe, 0x21, 0xd6, 0xa3, 0x3d, 0xf3, 0xae, 0x12, 0x3e,
  0x10, 0x46, 0xe1, 0x3c, 0x60, 0x55, 0x9a, 0x3e, 0x02, 0x2b, 0x3a, 0x3e,
  0xd1, 0x9d, 0xcc, 0xbe, 0xea, 0x8a, 0x7c, 0x3c, 0xbf, 0x0b, 0xcc, 0x3e,
  0xe9, 0x3b, 0xb7, 0x3d, 0x51, 0xd7, 0x83, 0x3d, 0xb0, 0x94, 0x22, 0x3e,
  0x41, 0x85, 0xd8, 0x3d, 0xd1, 0x13, 0xdf, 0x3d, 0x57, 0x72, 0x82, 0xbe,
  0x34, 0x48, 0x4c, 0x3e, 0x68, 0xda, 0x05, 0xbe, 0xaf, 0x80, 0x11, 0x3e,
  0x65, 0x6f, 0xc3, 0x3c, 0x78, 0x81, 0x86, 0x3d, 0x36, 0xf4, 0x61, 0x3e,
  0xda, 0x12, 0x5e, 0xbc, 0x84, 0x92, 0x34, 0xbe, 0xf3, 0x64, 0x01, 0xbe,
  0x02, 0x01, 0x39, 0x3e, 0xda, 0x45, 0x0c, 0xbc, 0xf5, 0xb3, 0x3e, 0x3e,
  0x63, 0x52, 0x4d, 0xbe, 0xd5, 0x65, 0xb7, 0x3d, 0xa9, 0x01, 0x1c, 0x3d,
  0x88, 0x02, 0xfb, 0xbe, 0x13, 0xf8, 0x51, 0x3d, 0x8e, 0x57, 0x86, 0xbd,
  0x0c, 0x45, 0x80, 0x3e, 0x56, 0x8a, 0xc4, 0x3c, 0x06, 0x7d, 0xcc, 0x3d,
  0x5e, 0x9b, 0x9b, 0xbe, 0xfd, 0x9f, 0x6d, 0xbc, 0xd6, 0xb9, 0x66, 0xbd,
  0x25, 0x8b, 0x22, 0xbd, 0x78, 0xf0, 0x4e, 0xbf, 0x19, 0xbd, 0xe3, 0x3e,
  0xa8, 0xc0, 0xaa, 0xbe, 0x9f, 0x5e, 0xfe, 0xbe, 0x3f, 0x10, 0x16, 0xbe,
  0xc6, 0xfc, 0x03, 0x3c, 0x8c, 0xc8, 0x01, 0xbf, 0xc9, 0x53, 0x34, 0x3d,
  0x99, 0xaf, 0x3e, 0xbe, 0xc8, 0xaa, 0xc2, 0x3d, 0xc0, 0x89, 0x9f, 0xbf,
  0x94, 0x02, 0x65, 0x3c, 0x4d, 0xa6, 0xe0, 0xbd, 0x0c, 0x31, 0x36, 0xbe,
  0xca, 0x87, 0x92, 0xbd, 0x6c, 0xf4, 0xea, 0x3a, 0x01, 0xd3, 0x90, 0x3d,
  0x00, 0xe3, 0xee, 0x3d, 0x1b, 0xf4, 0xe5, 0xbe, 0xa1, 0x1f, 0x65, 0xbe,
  0xff, 0x22, 0x12, 0x3e, 0xea, 0x16, 0x40, 0xbe, 0xf9, 0x98, 0xad, 0xbe,
  0xf3, 0xf9, 0x17, 0xbe, 0x23, 0xc8, 0x6c, 0xbd, 0x9f, 0x8e, 0x78, 0xbe,
  0xbc, 0xba, 0x20, 0x3f, 0x08, 0x90, 0x24, 0x3d, 0xe0, 0x0d, 0x87, 0xbe,
  0x55, 0x86, 0xd7, 0xbd, 0xe3, 0x1c, 0x81, 0xbd, 0xb8, 0xf0, 0x65, 0xbc,
  0x1b, 0xd5, 0x12, 0x3e, 0x7b, 0x48, 0xc6, 0x3d, 0xa5, 0x37, 0xc8, 0x3a,
  0x86, 0xbc, 0x91, 0xbe, 0x6d, 0x6a, 0xdd, 0x3d, 0x31, 0xef, 0x30, 0x3d,
  0x37, 0xd7, 0x90, 0xbd, 0x78, 0x40, 0x3a, 0xbe, 0xab, 0x53, 0x63, 0xbe,
  0x46, 0x45, 0x5e, 0x3e, 0x6f, 0x21, 0xb8, 0x3d, 0x3f, 0x5f, 0x45, 0x3d,
  0xff, 0xa0, 0xcc, 0x3b, 0x1d, 0x6a, 0xae, 0xbd, 0xb7, 0x30, 0x46, 0xbe,
  0x57, 0x28, 0x93, 0x3d, 0xdc, 0x6e, 0x03, 0x3f, 0xf4, 0x08, 0xb5, 0x3e,
  0x21, 0xdb, 0xc0, 0x3d, 0xb4, 0x6c, 0xb8, 0xbe, 0x5d, 0x02, 0xe2, 0x3d,
  0x49, 0x70, 0x16, 0x3d, 0xb6, 0x1a, 0x40, 0xbd, 0x16, 0xa0, 0x8b, 0xbe,
  0x7f, 0xe3, 0x48, 0xbe, 0x45, 0x34, 0x9e, 0x3e, 0x65, 0xc4, 0x32, 0x3e,
  0x60, 0x42, 0x6b, 0x3c, 0x15, 0xa2, 0x6c, 0xbe, 0xb9, 0x0c, 0x2f, 0x3e,
  0x92, 0xbf, 0xc7, 0xbd, 0xb4, 0xfd, 0x9f, 0x3d, 0x88, 0x2d, 0x20, 0x3f,
  0x8c, 0x79, 0x81, 0xbe, 0x32, 0x35, 0x05, 0x3e, 0xcc, 0xda, 0x8c, 0xbe,
  0x3f, 0x60, 0x43, 0xbf, 0x35, 0x78, 0xa5, 0x3d, 0xc4, 0x89, 0x48, 0x3c,
  0x93, 0x5a, 0x02, 0xbe, 0x3a, 0x1b, 0xa8, 0xbe, 0x3d, 0xaa, 0x8b, 0x3e,
  0xce, 0xb0, 0x1d, 0xbf, 0x25, 0x77, 0x04, 0xbd, 0xa9, 0x21, 0xf3, 0x3d,
  0x69, 0x3f, 0x63, 0x3e, 0xe6, 0x82, 0x9e, 0xbd, 0xeb, 0xa6, 0x4b, 0xbc,
  0xc0, 0xa2, 0xef, 0x3e, 0x8f, 0xb7, 0x56, 0x3e, 0x5e, 0x8a, 0x9d, 0x3e,
  0x8c, 0x0e, 0x17, 0xbe, 0xae, 0xf7, 0x6d, 0xbf, 0x03, 0x62, 0xe0, 0xbc,
  0x1c, 0x77, 0xdb, 0x3e, 0xd8, 0xb5, 0xfb, 0x3d, 0x71, 0x85, 0xfb, 0xbd,
  0x52, 0xeb, 0x00, 0x3e, 0xd9, 0xa5, 0x10, 0xbf, 0xb7, 0x4b, 0xef, 0xbc,
  0x47, 0x2d, 0x45, 0x3e, 0x12, 0xa0, 0xa3, 0x3d, 0xd5, 0x4e, 0xed, 0xbb,
  0x20, 0xa0, 0x96, 0x3d, 0xe4, 0x49, 0xc1, 0x3e, 0x5a, 0xde, 0xa2, 0x3d,
  0x6f, 0x86, 0xbd, 0x3e, 0xde, 0x74, 0xa9, 0xbe, 0x2e, 0x03, 0x6b, 0xbe,
  0x34, 0xf0, 0x55, 0xbe, 0x2b, 0xfa, 0x35, 0x3e, 0x47, 0x8c, 0xa4, 0x3e,
  0x50, 0x5a, 0xc0, 0xbc, 0x1f, 0x5e, 0xcc, 0xbc, 0x69, 0x01, 0xb4, 0xbe,
  0x66, 0x28, 0x9d, 0xbc, 0x83, 0x7f, 0xce, 0xbd, 0x07, 0x1f, 0xf8, 0x3d,
  0x2a, 0x59, 0xc3, 0x3d, 0xbd, 0x14, 0x4b, 0x3e, 0x50, 0x4d, 0x8e, 0xbe,
  0xe0, 0x71, 0xa0, 0xbd, 0x56, 0xb7, 0x6a, 0x3e, 0xac, 0xfc, 0x2c, 0xbe,
  0xfe, 0x00, 0x24, 0xbf, 0x2b, 0x14, 0x17, 0xbe, 0xa2, 0xec, 0x12, 0xbd,
  0x0c, 0xd8, 0x8f, 0x3e, 0x9e, 0xa0, 0xdc, 0x3d, 0xfc, 0xbf, 0xc8, 0xbe,
  0x5d, 0xfc, 0x08, 0xbf, 0x2d, 0xf8, 0xd7, 0x3c, 0x14, 0xab, 0x71, 0x3e,
  0x64, 0x53, 0xa5, 0x3d, 0x41, 0x5f, 0x8e, 0x3d, 0x76, 0x79, 0x3a, 0x3e,
  0x30, 0x86, 0xe5, 0x3b, 0x90, 0x11, 0xf6, 0x3d, 0x28, 0xf3, 0x6f, 0x3e,
  0xea, 0xb6, 0x22, 0xbf, 0xa3, 0xf4, 0x48, 0x3e, 0x0e, 0xe4, 0x94, 0xbd,
  0x90, 0xec, 0x19, 0xbd, 0x67, 0xcf, 0x49, 0x3e, 0xc2, 0xb7, 0xb5, 0x3d,
  0xbb, 0x8b, 0xfd, 0xbd, 0xb9, 0x79, 0x37, 0xbf, 0x0b, 0x45, 0xeb, 0x3c,
  0x7f, 0x48, 0x90, 0x3c, 0x79, 0x8a, 0x32, 0xbe, 0x35, 0x17, 0x00, 0xbe,
  0x2c, 0x14, 0x4e, 0x3d, 0x15, 0xc2, 0xc0, 0xbe, 0x08, 0xf8, 0xa3, 0x3e,
  0x5c, 0xf7, 0x98, 0xbb, 0xa0, 0xfa, 0xe2, 0xbe, 0x21, 0x1e, 0x80, 0x3e,
  0x33, 0x5c, 0x00, 0xbe, 0x6d, 0x96, 0x04, 0xbe, 0xd6, 0x73, 0x03, 0x3e,
  0x01, 0xf4, 0x24, 0x3c, 0xa3, 0x5f, 0x0d, 0xbe, 0xe8, 0xe8, 0x13, 0x3e,
  0x4b, 0x1e, 0x55, 0x3c, 0xa5, 0x93, 0x9a, 0x3c, 0xd4, 0x94, 0x15, 0xbe,
  0x6c, 0x16, 0x0b, 0x3c, 0x44, 0x7b, 0xd5, 0x3d, 0x6f, 0x8d, 0x62, 0x3e,
  0x52, 0xcc, 0x96, 0x3e, 0xf4, 0x21, 0xe6, 0x3d, 0x04, 0x01, 0xc0, 0xbe,
  0x63, 0xa0, 0x51, 0x3e, 0x62, 0xf0, 0x34, 0xbe, 0x3f, 0x22, 0x06, 0xbe,
  0xc6, 0x95, 0xb6, 0xbd, 0x2d, 0x10, 0x99, 0x3c, 0xd3, 0xfd, 0xa9, 0xbe,
  0xfa, 0x70, 0xc3, 0x3e, 0x0b, 0x2e, 0xd6, 0xbc, 0x25, 0x23, 0x02, 0x3e,
  0xe4, 0x7e, 0x51, 0x3e, 0xc7, 0x76, 0x25, 0xbe, 0x8f, 0xed, 0xa4, 0x3d,
  0x03, 0xa7, 0x83, 0x3e, 0xff, 0x5b, 0x97, 0x3e, 0x4c, 0xef, 0x37, 0x3e,
  0xe9, 0x35, 0x72, 0xbe, 0xdf, 0x2c, 0x05, 0x3e, 0x4b, 0xf9, 0x27, 0x3c,
  0x25, 0xff, 0x36, 0xbe, 0xeb, 0x4e, 0xcd, 0xbd, 0xb5, 0x0f, 0xa3, 0xbd,
  0x3d, 0xe4, 0x50, 0x3e, 0x2e, 0xd4, 0x43, 0x3e, 0x63, 0x7e, 0x1e, 0xbe,
  0xec, 0xf7, 0xc7, 0x3d, 0x24, 0x68, 0xfe, 0x3c, 0x42, 0x4b, 0x81, 0xbd,
  0x5a, 0x00, 0xbb, 0xbe, 0x3b, 0x0b, 0xfb, 0x3e, 0xac, 0xcc, 0x05, 0x3f,
  0x91, 0xc6, 0x92, 0x3d, 0x7d, 0x0e, 0xf1, 0xbe, 0x14, 0x2d, 0xd6, 0x3c,
  0x8a, 0x25, 0x4b, 0x3e, 0xd6, 0x5a, 0x76, 0xbe, 0x8a, 0xdd, 0x28, 0xbe,
  0x87, 0x04, 0x31, 0xbe, 0x50, 0xf7, 0x1c, 0x3e, 0x11, 0xd1, 0xf1, 0x3d,
  0xf4, 0x92, 0x9d, 0xbe, 0x98, 0x68, 0xfe, 0xbd, 0x90, 0x8a, 0xcb, 0xbd,
  0x64, 0x8c, 0x63, 0xbe, 0xc2, 0xac, 0xcb, 0xbe, 0xa0, 0xe5, 0x11, 0x3f,
  0xcf, 0x80, 0x09, 0xbd, 0x2d, 0x13, 0x0a, 0xbe, 0xa9, 0x92, 0xab, 0xbe,
  0x9b, 0xb4, 0x2d, 0xbf, 0x9f, 0x75, 0xcb, 0x3e, 0x4b, 0x06, 0x18, 0xbe,
  0x4a, 0xbe, 0x80, 0xbe, 0x12, 0x18, 0x20, 0x3b, 0x81, 0x01, 0x28, 0xbd,
  0x1b, 0x7b, 0x41, 0xbe, 0xff, 0x96, 0x8c, 0xbe, 0x65, 0xd9, 0x77, 0xbd,
  0x76, 0x7a, 0xb8, 0xbd, 0xa2, 0x44, 0xca, 0xbb, 0x77, 0xbe, 0x3c, 0xbe,
  0xf7, 0x8e, 0x56, 0xbe, 0xb7, 0x94, 0x12, 0x3e, 0xd8, 0x45, 0xb6, 0xbe,
  0xf8, 0x32, 0x00, 0xbf, 0xd9, 0x27, 0x82, 0xbe, 0x4a, 0x14, 0xa9, 0xbd,
  0xff, 0xd2, 0xe3, 0xbd, 0x29, 0x50, 0xeb, 0xbb, 0x35, 0xad, 0xaa, 0x3c,
  0xfd, 0x67, 0xf2, 0x3d, 0xed, 0xe8, 0x5b, 0xbd, 0x3c, 0xb7, 0xbd, 0x3d,
  0x74, 0xff, 0xb6, 0xbd, 0xb6, 0x45, 0xcf, 0xbe, 0x69, 0x3e, 0x2c, 0xbc,
  0xa4, 0x59, 0x08, 0xbc, 0xc8, 0xd1, 0xd4, 0x3d, 0x45, 0xf7, 0x18, 0x3e,
  0xb4, 0x2b, 0xbc, 0xbe, 0x63, 0xcf, 0x97, 0x3d, 0xa7, 0xa6, 0x1a, 0x3e,
  0xe2, 0xf1, 0xa0, 0x3d, 0x47, 0x7d, 0xef, 0xbd, 0x5b, 0xaf, 0x8c, 0xbd,
  0x19, 0xef, 0xd3, 0x3d, 0xfa, 0x94, 0xa1, 0x3c, 0x2e, 0x03, 0x94, 0x3c,
  0xbf, 0x94, 0x9a, 0x3d, 0x08, 0xca, 0x62, 0xbd, 0x67, 0x9e, 0x9d, 0xbe,
  0xf1, 0xe1, 0x9f, 0x3d, 0x5e, 0x2a, 0xad, 0x3d, 0xc1, 0x36, 0x1f, 0x3e,
  0xc7, 0xf2, 0x5d, 0x3d, 0xaf, 0xa8, 0x88, 0xbe, 0xc4, 0x3e, 0x65, 0xbe,
  0xc3, 0xb9, 0x26, 0x3e, 0x61, 0xc9, 0xe3, 0x3d, 0x15, 0x00, 0x00, 0x3e,
  0xb6, 0x90, 0x13, 0xbe, 0xb0, 0xd5, 0x83, 0x3d, 0xe2, 0x2a, 0x09, 0x3e,
  0xad, 0x59, 0x71, 0xbd, 0x89, 0xc3, 0x41, 0x3d, 0x03, 0x8b, 0x99, 0xbd,
  0x61, 0x34, 0x4d, 0x3d, 0xdf, 0xc9, 0x70, 0xbd, 0xad, 0xe5, 0xf9, 0x3d,
  0x43, 0x1c, 0x15, 0x3f, 0xb1, 0xb2, 0x85, 0x3d, 0x61, 0xfd, 0x47, 0xbe,
  0xce, 0xbf, 0x2c, 0xbe, 0x26, 0x88, 0x75, 0x3d, 0x46, 0xcb, 0xd3, 0x3c,
  0x4d, 0xba, 0x10, 0x3d, 0xf7, 0xfc, 0x84, 0x3e, 0x08, 0xa0, 0x6d, 0x3d,
  0xce, 0xaf, 0x41, 0x3e, 0x9b, 0x79, 0x50, 0xbd, 0xf0, 0xae, 0xf6, 0x38,
  0xe1, 0x29, 0x19, 0x3c, 0x4f, 0xd4, 0x72, 0x3c, 0x77, 0xb4, 0xdb, 0xbd,
  0x9d, 0x87, 0x0b, 0x3d, 0x5d, 0x83, 0x19, 0x3e, 0x19, 0xf7, 0x12, 0x3e,
  0x6a, 0xf0, 0xfb, 0xbd, 0x39, 0x8c, 0x39, 0xbe, 0xb9, 0x05, 0x94, 0x3d,
  0x73, 0xd1, 0x18, 0x3d, 0x96, 0x11, 0x0d, 0x3d, 0xd8, 0x6f, 0x72, 0x3e,
  0xc4, 0xf7, 0x80, 0x3c, 0xe0, 0x99, 0x3c, 0x3d, 0x05, 0x8d, 0x3b, 0xbd,
  0xce, 0x68, 0x54, 0x3b, 0x62, 0xe4, 0x41, 0x3b, 0x96, 0x4e, 0x7d, 0xbe,
  0x7d, 0x10, 0x09, 0xbe, 0x2e, 0xb7, 0x07, 0xbd, 0xdd, 0xd5, 0x9c, 0x3e,
  0x3e, 0x14, 0x0c, 0xbd, 0xe3, 0x51, 0x81, 0xbe, 0x56, 0x8e, 0x3f, 0x3d,
  0x5e, 0xa4, 0x12, 0x3e, 0xdf, 0x56, 0x29, 0xbe, 0xe2, 0xbb, 0x90, 0xbe,
  0x59, 0x51, 0x73, 0x3e, 0xf7, 0x28, 0x48, 0x3e, 0xcd, 0xca, 0x6a, 0x3d,
  0x93, 0x4f, 0xe4, 0xbd, 0xd1, 0x99, 0xd9, 0x3c, 0x81, 0xe8, 0xd4, 0xbd,
  0x11, 0xc6, 0xd5, 0x3d, 0x17, 0x81, 0x1f, 0xbd, 0x64, 0xcf, 0x26, 0x3d,
  0x46, 0x70, 0xe9, 0x3e, 0xec, 0x26, 0x9f, 0x3e, 0xbb, 0xb7, 0x12, 0xbe,
  0x8b, 0x89, 0x06, 0xbe, 0x93, 0xcd, 0xf3, 0x3d, 0x8f, 0x7c, 0x10, 0xbd,
  0xc2, 0xed, 0x87, 0xbe, 0x8c, 0xa3, 0x8a, 0xbc, 0xff, 0xe2, 0x41, 0x3e,
  0x92, 0xcf, 0x50, 0x3e, 0x38, 0xc0, 0x01, 0xbe, 0x3b, 0x2f, 0x10, 0xbd,
  0x3a, 0x90, 0x64, 0xbe, 0x18, 0xb8, 0x8c, 0x3e, 0x81, 0x8b, 0xc8, 0x3d,
  0x2d, 0xa3, 0x93, 0x3d, 0xf1, 0x4a, 0xa2, 0x3e, 0x0b, 0x20, 0xa9, 0x3e,
  0xe8, 0xaf, 0x81, 0xbe, 0x1e, 0x5d, 0xdb, 0xbe, 0x4c, 0x49, 0x02, 0xbe,
  0x4e, 0x11, 0xf4, 0x3d, 0xc2, 0xe1, 0x05, 0xbe, 0x74, 0x10, 0x03, 0x3d,
  0xfc, 0x6c, 0x1a, 0x3e, 0x2b, 0x9f, 0x86, 0x3d, 0xda, 0x5a, 0xbf, 0xbd,
  0xea, 0x95, 0x08, 0xbb, 0x32, 0xb3, 0x90, 0xbd, 0x88, 0xb1, 0x28, 0xbe,
  0xf6, 0x7c, 0xb8, 0x3d, 0xfd, 0x5c, 0x82, 0x3d, 0x2e, 0xa6, 0xb5, 0x3c,
  0x15, 0x49, 0xaa, 0x3e, 0xac, 0x8a, 0x64, 0xbe, 0xec, 0x75, 0x68, 0xbd,
  0x3c, 0x00, 0xd1, 0x3d, 0x62, 0xa4, 0xa6, 0xbc, 0x98, 0x70, 0x0b, 0x3d,
  0xaf, 0x5f, 0xa4, 0xbd, 0xae, 0xf1, 0x20, 0x3e, 0x17, 0x2a, 0x6f, 0x3d,
  0x1c, 0x54, 0xae, 0x3d, 0xe1, 0xd3, 0x90, 0x3c, 0x8b, 0xe9, 0xa9, 0xbd,
  0x15, 0x0f, 0x72, 0x3c, 0x71, 0xc7, 0x94, 0x3d, 0x10, 0x4a, 0x13, 0x3d,
  0x5a, 0xfb, 0x38, 0xbd, 0x58, 0x75, 0x9c, 0x3e, 0x20, 0x54, 0xbd, 0xbe,
  0x36, 0xbe, 0xe0, 0x3d, 0x97, 0xc5, 0x05, 0x3e, 0xf2, 0xff, 0x60, 0x3d,
  0xcb, 0x11, 0x6f, 0x3c, 0x23, 0xc9, 0xbb, 0xbd, 0xfb, 0x29, 0xb2, 0x3c,
  0xb5, 0xf0, 0xa8, 0x3d, 0xfc, 0xc1, 0x92, 0x3d, 0x73, 0xed, 0x90, 0x3d,
  0xd0, 0x78, 0x38, 0xbe, 0xf4, 0x41, 0x81, 0xbc, 0x70, 0x47, 0x58, 0x3c,
  0xf9, 0x7c, 0x95, 0x3c, 0xc6, 0xc7, 0x66, 0xbc, 0x97, 0x38, 0x53, 0x3e,
  0x6d, 0x09, 0xc7, 0xbd, 0x80, 0xd4, 0xcc, 0x3c, 0x45, 0x69, 0x3e, 0x3e,
  0xac, 0x98, 0xd7, 0x3d, 0x9d, 0xbb, 0x93, 0x3d, 0x06, 0xe7, 0x6d, 0xbc,
  0x83, 0xb2, 0x31, 0x3d, 0xbe, 0x31, 0x97, 0x3c, 0x81, 0x49, 0xd7, 0x3c,
  0x36, 0x17, 0x20, 0x3d, 0x72, 0x20, 0x49, 0x3e, 0xa9, 0x59, 0x51, 0xbe,
  0x82, 0xb1, 0x1d, 0x3c, 0x36, 0x14, 0xaa, 0x3b, 0xc6, 0x2a, 0x84, 0x3c,
  0x23, 0x85, 0xb3, 0x3d, 0x64, 0xce, 0x07, 0xbe, 0x6a, 0xb8, 0x5f, 0xbc,
  0x94, 0xf9, 0x8f, 0x3d, 0x00, 0x73, 0x03, 0x3e, 0xd5, 0x65, 0x3b, 0x3d,
  0xc7, 0x04, 0x91, 0xbc, 0x00, 0x10, 0xd8, 0x3b, 0x3f, 0x63, 0x5b, 0x3d,
  0x47, 0x4f, 0x2f, 0xbd, 0x47, 0xe5, 0x19, 0xbd, 0xeb, 0xfa, 0xad, 0xbd,
  0x75, 0xf6, 0x3c, 0xbe, 0x62, 0xf4, 0x3d, 0x3c, 0xfe, 0xd8, 0xaf, 0x3c,
  0x30, 0x13, 0xb7, 0x3d, 0xe5, 0x30, 0xb7, 0x3d, 0xad, 0x6e, 0xb9, 0x3d,
  0xd0, 0xdf, 0x8f, 0xbe, 0xcb, 0xbb, 0xa3, 0x3c, 0x60, 0x73, 0x13, 0x3e,
  0xe4, 0x1b, 0x09, 0xbd, 0x51, 0x16, 0x9a, 0x3c, 0x11, 0x0c, 0x23, 0xbd,
  0x48, 0x1e, 0xb0, 0x3d, 0x50, 0xa9, 0x36, 0x3c, 0x2c, 0xdd, 0x33, 0x3d,
  0x17, 0xbc, 0x95, 0x3d, 0x56, 0xe1, 0x60, 0xbe, 0x28, 0xdb, 0x36, 0xbd,
  0xa7, 0x55, 0x91, 0xbe, 0xd5, 0xc4, 0xa7, 0x3d, 0x9d, 0xfd, 0x94, 0x3b,
  0xdd, 0x7a, 0x65, 0x3e, 0x37, 0x65, 0xd2, 0xbc, 0x99, 0x65, 0x8c, 0x3d,
  0x2f, 0xc7, 0xa6, 0x3d, 0x77, 0xdf, 0x25, 0x3e, 0xd3, 0xec, 0xaf, 0xbd,
  0x60, 0xa6, 0x50, 0xba, 0x11, 0x9b, 0x8a, 0x3c, 0xd6, 0x96, 0xc1, 0x3c,
  0x9a, 0x3a, 0x55, 0xbe, 0x9b, 0x98, 0x37, 0x3d, 0x34, 0x53, 0x2d, 0xbe,
  0x30, 0xb2, 0x43, 0x3c, 0x56, 0x39, 0x23, 0xbe, 0x7c, 0x89, 0xee, 0x3d,
  0x17, 0x69, 0x28, 0xbe, 0x80, 0x5b, 0x0e, 0x3e, 0x6a, 0x08, 0x5e, 0x3e,
  0x14, 0x2c, 0x4b, 0x3c, 0xd1, 0x9c, 0xfe, 0x3d, 0x23, 0x35, 0x12, 0xbc,
  0xf6, 0x95, 0x16, 0xbd, 0x8f, 0x12, 0xbc, 0xba, 0x41, 0x62, 0x59, 0xbe,
  0x19, 0x32, 0x2f, 0xbd, 0x89, 0xcc, 0x0a, 0xbf, 0x7b, 0x28, 0x05, 0x3f,
  0x74, 0x79, 0x79, 0x3e, 0xb4, 0x68, 0x22, 0x3e, 0x37, 0x60, 0xe9, 0x3e,
  0x3a, 0x38, 0xd5, 0xbd, 0x82, 0xfd, 0x69, 0x3e, 0x7f, 0xe9, 0x8a, 0x3e,
  0x61, 0x24, 0x25, 0x3e, 0x0e, 0xcb, 0xd4, 0xbd, 0x4b, 0xe8, 0x70, 0xbe,
  0x55, 0x48, 0x09, 0x3e, 0x34, 0x9f, 0x6d, 0x3d, 0xd0, 0xf7, 0x82, 0xbe,
  0xdb, 0x03, 0x25, 0xbe, 0xa9, 0xdc, 0x1e, 0xbc, 0x60, 0xdd, 0xe5, 0xbe,
  0xf9, 0x4f, 0xa7, 0x3f, 0xa3, 0xbf, 0xe4, 0x3e, 0x51, 0xbc, 0x99, 0x3e,
  0x63, 0xc1, 0x33, 0x3e, 0xb4, 0x9b, 0xd7, 0xbe, 0x6f, 0xb6, 0x30, 0x3e,
  0x92, 0x50, 0xec, 0x3d, 0x9d, 0x88, 0xbb, 0x3e, 0x01, 0x99, 0x13, 0x3e,
  0x8f, 0xc6, 0x8f, 0xbe, 0x2a, 0x85, 0x53, 0x3d, 0x02, 0xfc, 0x98, 0xbe,
  0xd7, 0x56, 0xd6, 0xbd, 0xed, 0xbd, 0xf5, 0xbe, 0xab, 0x68, 0x07, 0x3e,
  0xe5, 0xbd, 0x44, 0xbe, 0x11, 0x42, 0x74, 0x3f, 0x07, 0x7d, 0xcb, 0xbe,
  0xd5, 0xe4, 0x84, 0xbe, 0x0f, 0x0a, 0xda, 0xbe, 0xf3, 0x9a, 0x87, 0xbd,
  0x0e, 0xb9, 0x48, 0x3e, 0x68, 0x92, 0xb5, 0x3d, 0x75, 0x67, 0x2d, 0x3d,
  0xdb, 0xc6, 0x8d, 0xbd, 0x0f, 0xe2, 0x73, 0xbd, 0xe6, 0xdb, 0x9d, 0x3d,
  0x7b, 0xef, 0x4c, 0xbf, 0xa8, 0x20, 0x0d, 0xbe, 0x14, 0x3f, 0x08, 0x3e,
  0xa3, 0x7e, 0x29, 0x3e, 0xec, 0xc3, 0xd5, 0xbc, 0x86, 0x20, 0x6c, 0x3f,
  0xde, 0xb1, 0xbd, 0xbb, 0xe9, 0xcc, 0x71, 0xbe, 0x5d, 0xd4, 0xe9, 0xbd,
  0x4b, 0xec, 0xa9, 0x3d, 0x03, 0x91, 0xb8, 0x3e, 0x20, 0x73, 0x49, 0x3e,
  0x90, 0x1b, 0x7f, 0xb9, 0xf4, 0xb9, 0x59, 0x3d, 0xd5, 0xc4, 0x6a, 0x3e,
  0x67, 0x06, 0x94, 0x3d, 0x3f, 0xd3, 0x72, 0x3d, 0xb1, 0x4d, 0xee, 0xbe,
  0x81, 0x57, 0xf3, 0x3e, 0x4a, 0x4d, 0x5a, 0x3d, 0x81, 0x02, 0x5c, 0xbd,
  0x02, 0x32, 0xf5, 0x3e, 0x2c, 0x10, 0x75, 0x3d, 0xb9, 0x1d, 0x16, 0xbe,
  0xe9, 0x67, 0xd8, 0xbe, 0x24, 0x10, 0xac, 0x3e, 0xd8, 0x24, 0x49, 0x3e,
  0x1a, 0x83, 0x4b, 0x3d, 0xa4, 0xdd, 0x0e, 0xbe, 0xcf, 0xe4, 0xb7, 0xbd,
  0xf8, 0x42, 0x74, 0x3e, 0x7f, 0x3a, 0x8f, 0xbc, 0x53, 0x01, 0x61, 0x3d,
  0x5d, 0x40, 0x36, 0xbf, 0xac, 0x6d, 0xae, 0x3e, 0xbb, 0xee, 0xbf, 0xbd,
  0xb4, 0x9c, 0xe6, 0xbe, 0xc0, 0x35, 0x30, 0x3f, 0xa4, 0x71, 0xb5, 0xbc,
  0x7e, 0x23, 0x0c, 0xbe, 0x88, 0xb8, 0x6b, 0xbe, 0x4d, 0x4b, 0xd2, 0xbd,
  0x26, 0xe2, 0x5d, 0x3e, 0xa7, 0xb6, 0x22, 0x3e, 0x64, 0x9e, 0xe6, 0x3d,
  0xd7, 0xba, 0x0d, 0xbb, 0x17, 0xb7, 0x3f, 0x3e, 0x57, 0x64, 0xd1, 0x3d,
  0x1f, 0x44, 0x75, 0xbe, 0x09, 0x9a, 0xfc, 0xbe, 0xf2, 0x13, 0xbe, 0xbe,
  0x16, 0xd2, 0xa5, 0xbd, 0x48, 0x47, 0xc8, 0xbe, 0x55, 0x0b, 0x20, 0x3f,
  0x0e, 0x80, 0x69, 0x3a, 0xff, 0x41, 0x31, 0x3e, 0x71, 0xe6, 0x3d, 0x3d,
  0xb6, 0xad, 0x82, 0xbd, 0x22, 0x67, 0xf6, 0xbd, 0xc5, 0xe5, 0xc6, 0x3e,
  0xa5, 0x26, 0x19, 0x3f, 0x98, 0xd5, 0x94, 0xbb, 0xfc, 0x85, 0x28, 0xbd,
  0x0e, 0x90, 0x17, 0x3e, 0x83, 0xd0, 0xb3, 0x3c, 0xe7, 0x41, 0x36, 0xbe,
  0xdc, 0x2c, 0xa9, 0xbe, 0xf5, 0x36, 0xe1, 0xbc, 0x58, 0x14, 0x15, 0xbf,
  0x70, 0x20, 0x43, 0x3f, 0x76, 0x07, 0x04, 0xbe, 0x03, 0x57, 0xf5, 0x3d,
  0xdf, 0x74, 0xd7, 0x3d, 0xf0, 0x7f, 0x64, 0xbe, 0x07, 0xf3, 0x41, 0x3e,
  0xd7, 0x18, 0xa1, 0x3e, 0x30, 0x43, 0xe7, 0x3e, 0x94, 0xa0, 0x15, 0x3f,
  0x6b, 0x5a, 0x8d, 0xbe, 0x8c, 0x4d, 0xbe, 0x3d, 0x82, 0x4b, 0x7a, 0xbd,
  0xd2, 0x68, 0x07, 0xbf, 0x25, 0x8b, 0x1c, 0xbf, 0x9c, 0x04, 0x1f, 0xba,
  0xed, 0xc4, 0x49, 0xbf, 0xc9, 0xa4, 0x84, 0x3f, 0x31, 0x58, 0xca, 0xbd,
  0x0c, 0xed, 0x1a, 0x3e, 0x61, 0x3c, 0x45, 0x3e, 0x20, 0xf1, 0xe8, 0xbd,
  0x2d, 0x70, 0xa0, 0xbe, 0xc3, 0x16, 0x90, 0x3e, 0x58, 0x29, 0x2c, 0x3f,
  0x12, 0x50, 0x65, 0x3d, 0x2f, 0xef, 0x90, 0xbe, 0xaa, 0xab, 0x9f, 0x3d,
  0xa9, 0xb9, 0x9b, 0x3e, 0x9c, 0x88, 0x11, 0xbf, 0xc9, 0x9b, 0x91, 0xbd,
  0xae, 0xc3, 0x85, 0xbe, 0xc7, 0xed, 0x8a, 0xbe, 0xd0, 0x19, 0x35, 0x3f,
  0x5e, 0xf0, 0xbb, 0x3e, 0xdd, 0x22, 0x5e, 0x3d, 0x49, 0xa9, 0xf3, 0x3e,
  0x7a, 0xbd, 0xe1, 0xbc, 0x47, 0x0a, 0xd0, 0x3e, 0x1e, 0x20, 0xac, 0x3e,
  0x5e, 0xd9, 0x2a, 0x3f, 0x80, 0x82, 0x84, 0xbc, 0x41, 0xc1, 0x96, 0x3c,
  0x5a, 0xbb, 0xd3, 0x3d, 0x03, 0xfe, 0xdc, 0x3d, 0x44, 0xb2, 0x7b, 0x3b,
  0x1c, 0xc9, 0xba, 0xbd, 0xda, 0x55, 0xdd, 0xbe, 0x57, 0x26, 0xb9, 0xbe,
  0xe2, 0x6a, 0x4a, 0x3f, 0xc1, 0xed, 0x8b, 0xbe, 0xda, 0xf7, 0x86, 0xbd,
  0xe1, 0x3c, 0xcb, 0x3c, 0xce, 0xe4, 0x81, 0xbe, 0x02, 0x12, 0x01, 0x3e,
  0xb0, 0x3d, 0x4f, 0xbe, 0xf2, 0x5c, 0x69, 0x3e, 0x4e, 0x1e, 0xb2, 0x3d,
  0xa3, 0xbd, 0x12, 0xbe, 0x52, 0xb8, 0x3f, 0xbe, 0x71, 0x44, 0x44, 0x3e,
  0xf0, 0x9a, 0x04, 0x3e, 0xc1, 0xd7, 0x42, 0xbe, 0x26, 0xe0, 0xbf, 0xbd,
  0xa4, 0x51, 0xa3, 0xbd, 0x25, 0xee, 0x13, 0x3f, 0x64, 0xe6, 0xa1, 0x3c,
  0xb2, 0xa2, 0xde, 0x3c, 0x53, 0xfe, 0x94, 0xbc, 0x1c, 0x0d, 0x03, 0xbe,
  0x41, 0xea, 0x4e, 0x3e, 0xc7, 0x2b, 0x11, 0xbe, 0x83, 0x4f, 0x4b, 0xbe,
  0x24, 0xcc, 0xa2, 0xbc, 0xb6, 0x01, 0x3c, 0xbe, 0x0d, 0x1f, 0x93, 0xbe,
  0x99, 0x3f, 0x70, 0x3e, 0xa2, 0xea, 0x12, 0xbe, 0xcd, 0x61, 0xa3, 0xbd,
  0x6f, 0x03, 0xaf, 0x3e, 0x9d, 0xf7, 0x8f, 0x3d, 0x9c, 0x40, 0x0b, 0x3f,
  0x15, 0x2e, 0xba, 0x3c, 0xfc, 0xa0, 0xad, 0xbc, 0xc2, 0x76, 0x2b, 0x3e,
  0xfb, 0x18, 0x4e, 0x3e, 0x7f, 0x6e, 0xcd, 0x3d, 0xaf, 0xf6, 0xb8, 0xbc,
  0xac, 0xaa, 0xf5, 0xbd, 0xc2, 0xd5, 0x50, 0x3d, 0xa0, 0x9d, 0xc6, 0xbd,
  0x3f, 0x00, 0x16, 0xbe, 0x68, 0x96, 0x8c, 0x3d, 0xd4, 0xa2, 0x46, 0xbd,
  0x08, 0xca, 0xbb, 0x3e, 0xb4, 0xcc, 0x8e, 0x3d, 0xed, 0xb7, 0x67, 0xbe,
  0x70, 0x9a, 0x1f, 0x3e, 0x83, 0xc5, 0xb4, 0x3d, 0x44, 0x23, 0x28, 0xb9,
  0x0c, 0x8b, 0x67, 0xbe, 0x8f, 0x09, 0x9c, 0xbe, 0xbc, 0xe3, 0x3d, 0x3b,
  0x8e, 0x38, 0x91, 0xbe, 0x05, 0x88, 0x2e, 0xbf, 0x3f, 0xdd, 0x1d, 0xba,
  0x72, 0x2a, 0x00, 0x3d, 0xc6, 0xcf, 0x06, 0xbf, 0x10, 0xd1, 0x94, 0xbf,
  0xe7, 0x1c, 0x78, 0xbd, 0x0e, 0xca, 0x41, 0xbe, 0xbd, 0x44, 0x20, 0x3e,
  0xa5, 0x75, 0x47, 0x3b, 0x39, 0x9b, 0x8d, 0xbd, 0x73, 0x88, 0x91, 0xbe,
  0x67, 0x48, 0x85, 0xbf, 0x66, 0xfc, 0x05, 0xbd, 0x3c, 0x75, 0x26, 0xbe,
  0x04, 0x6a, 0x8b, 0xbe, 0xfc, 0x35, 0xee, 0x3d, 0x67, 0x72, 0x09, 0x3e,
  0xda, 0x53, 0x63, 0xbe, 0x7f, 0xfd, 0xcc, 0x3d, 0x0f, 0x42, 0xb8, 0x3d,
  0xc0, 0xfe, 0xd7, 0xbd, 0xc7, 0xd8, 0xaf, 0x3c, 0x96, 0xbc, 0x24, 0x3d,
  0xc8, 0x8e, 0x17, 0xbe, 0x3b, 0xe4, 0x51, 0xbc, 0xe6, 0x45, 0x1c, 0x3e,
  0x17, 0xe8, 0xc3, 0xbe, 0x8e, 0x97, 0x09, 0xbf, 0x25, 0x5a, 0x06, 0xbc,
  0x50, 0xd4, 0x8a, 0xbe, 0xa8, 0xa6, 0x92, 0xbe, 0x34, 0xab, 0xb4, 0x3d,
  0x07, 0xab, 0x53, 0x3e, 0x10, 0xd4, 0x81, 0xbd, 0x4c, 0x1f, 0x1b, 0x3e,
  0xa2, 0x3b, 0x7d, 0xbe, 0x32, 0xd3, 0xd6, 0x3e, 0x51, 0x30, 0xa7, 0xbd,
  0x29, 0x24, 0x57, 0x3d, 0xcd, 0x86, 0x0a, 0xbf, 0x6f, 0x20, 0x27, 0xbd,
  0x0e, 0xa1, 0x7f, 0x3d, 0xdf, 0x8e, 0x4c, 0xbe, 0xf4, 0x54, 0x01, 0xbf,
  0xd1, 0x81, 0x64, 0x3d, 0x1c, 0x62, 0xb7, 0xbe, 0xb2, 0xdb, 0x61, 0xbe,
  0xfd, 0x09, 0x5c, 0xbe, 0x70, 0x93, 0x95, 0xbd, 0xd5, 0x9a, 0xc7, 0xbc,
  0xd8, 0x9f, 0xac, 0x3e, 0x7e, 0xf6, 0x6e, 0xbe, 0xc9, 0xac, 0x6a, 0x3e,
  0xa0, 0xc3, 0x52, 0x3e, 0x75, 0xb0, 0x05, 0xbd, 0x88, 0x95, 0xe9, 0xbe,
  0xb8, 0x0a, 0xa0, 0xbc, 0xaf, 0xb8, 0x24, 0xbe, 0xba, 0xe0, 0xe0, 0x3d,
  0xae, 0xcf, 0x0d, 0xbf, 0x4b, 0xce, 0x80, 0x3c, 0x0b, 0x9e, 0x69, 0xbe,
  0x19, 0x26, 0x05, 0xbe, 0x2e, 0x8b, 0xfd, 0xbe, 0x5a, 0xd3, 0x8b, 0x3e,
  0xd1, 0x95, 0x22, 0x3e, 0x3c, 0xaa, 0x41, 0x3e, 0xed, 0x80, 0xbd, 0xbe,
  0x40, 0x6e, 0x9d, 0xbc, 0x35, 0x5d, 0x37, 0x3e, 0x66, 0xb4, 0xe4, 0x3d,
  0x8c, 0x0c, 0xaa, 0xbe, 0x49, 0xd4, 0x42, 0x3d, 0x96, 0x4f, 0x89, 0xbe,
  0xd2, 0x48, 0xb2, 0xbd, 0x97, 0x01, 0x5a, 0xbf, 0xc3, 0x3e, 0xe2, 0xbd,
  0xad, 0x3c, 0x2d, 0xbe, 0x0e, 0x18, 0x07, 0x3e, 0x4e, 0x23, 0xe6, 0xbe,
  0xc2, 0x7a, 0xae, 0xbe, 0x43, 0x5b, 0x59, 0x3e, 0x22, 0x6d, 0x51, 0x3e,
  0xd9, 0x21, 0x31, 0xbf, 0x95, 0x8d, 0x01, 0x3d, 0x0d, 0x44, 0x01, 0x3d,
  0xbc, 0x34, 0x23, 0x3e, 0xaf, 0x8c, 0xba, 0xbe, 0x44, 0xd4, 0x29, 0xbc,
  0xba, 0xc0, 0x98, 0xbe, 0x32, 0xad, 0x0d, 0x3e, 0x03, 0x37, 0x20, 0xbf,
  0x14, 0x3f, 0x46, 0xbd, 0x3c, 0x62, 0x6e, 0x3d, 0x38, 0x5d, 0xcb, 0x3d,
  0xfa, 0x40, 0x0a, 0xbf, 0x05, 0x5f, 0x14, 0xbe, 0x68, 0xae, 0x63, 0x3e,
  0x71, 0x73, 0x7f, 0x3e, 0xde, 0x35, 0xef, 0xbe, 0x94, 0x45, 0xac, 0xbd,
  0xb1, 0x01, 0x2c, 0x3e, 0x3f, 0xb0, 0x57, 0x3e, 0x0e, 0x9f, 0x9a, 0xbe,
  0xcf, 0xd4, 0xfc, 0x3a, 0xb8, 0x9c, 0xd1, 0xbd, 0xb0, 0x21, 0x14, 0x3e,
  0x53, 0xf2, 0xa4, 0xbd, 0x11, 0xcb, 0xc0, 0xbd, 0xa0, 0x9d, 0x1a, 0xbd,
  0x98, 0x15, 0xc8, 0xbd, 0xe6, 0x0d, 0x18, 0xbf, 0x5c, 0x1b, 0xc6, 0x3d,
  0xae, 0xea, 0x91, 0x3e, 0xe9, 0x21, 0xad, 0x3e, 0x5f, 0xda, 0xe0, 0xbd,
  0xce, 0x3e, 0x94, 0xbe, 0xc4, 0x97, 0xf5, 0x3d, 0x18, 0x2c, 0xa8, 0x3e,
  0x53, 0xb2, 0xd5, 0x3c, 0xd1, 0xb5, 0xdc, 0xbb, 0x16, 0x7b, 0x98, 0xbe,
  0xca, 0x9e, 0x1f, 0x3c, 0x13, 0x7d, 0xfe, 0xbe, 0x25, 0x8f, 0x27, 0xbe,
  0xbd, 0x7a, 0x9d, 0x3d, 0x5f, 0x78, 0x75, 0xbe, 0xd6, 0x21, 0x98, 0xbe,
  0x74, 0x1b, 0xc1, 0x3e, 0xf2, 0x13, 0x1a, 0x3e, 0x80, 0x9f, 0x7f, 0x3e,
  0x6e, 0xc5, 0x20, 0xbc, 0xe7, 0x7f, 0x5e, 0xbe, 0x79, 0xda, 0x6b, 0x3d,
  0x59, 0x82, 0x74, 0x3d, 0x03, 0xfa, 0x94, 0xbd, 0xfd, 0xb9, 0x14, 0xbd,
  0x28, 0xe4, 0x3f, 0xbe, 0x4c, 0x0c, 0x51, 0x3d, 0xa7, 0x33, 0x06, 0xbf,
  0x94, 0x48, 0x52, 0xbe, 0x65, 0xa0, 0x17, 0xbe, 0x19, 0xd8, 0x08, 0xbd,
  0x56, 0xae, 0x7f, 0xbe, 0x2f, 0x51, 0x2a, 0xbe, 0xf7, 0x08, 0x2f, 0x3d,
  0x4e, 0x4e, 0x3a, 0x3d, 0x98, 0xf2, 0x81, 0x3d, 0x27, 0x97, 0x96, 0xbd,
  0xbb, 0x52, 0x96, 0xbd, 0xb5, 0x85, 0xd7, 0xbd, 0x0f, 0x1c, 0xa6, 0xbc,
  0x44, 0xed, 0x48, 0x3d, 0xd1, 0x11, 0x72, 0x3d, 0x39, 0xed, 0x95, 0x3d,
  0x00, 0xcc, 0xcf, 0xbc, 0xe7, 0x50, 0x21, 0xbe, 0x0d, 0xf0, 0x34, 0xbe,
  0x99, 0xfd, 0x95, 0xbd, 0xbe, 0xa1, 0xdf, 0xbd, 0xbf, 0x2b, 0xee, 0x3e,
  0x58, 0x08, 0x64, 0xbe, 0x7e, 0x9b, 0x16, 0x3e, 0xd6, 0x72, 0x5b, 0x3e,
  0x8c, 0x7d, 0x20, 0xbd, 0x41, 0xc0, 0x23, 0xbe, 0xa4, 0xe7, 0xb2, 0xba,
  0x15, 0x7e, 0xae, 0xbd, 0x5d, 0x5a, 0xa5, 0x3c, 0x95, 0x37, 0xeb, 0xbc,
  0x1c, 0x6f, 0x58, 0xbd, 0x54, 0x9c, 0x1e, 0x3e, 0x1e, 0x3c, 0xa7, 0xbd,
  0x4c, 0x1d, 0xe5, 0xbe, 0x94, 0xde, 0x06, 0x3b, 0xf5, 0xfa, 0x14, 0xbe,
  0xe3, 0xc8, 0xa4, 0x3e, 0x27, 0x52, 0x90, 0xbd, 0x60, 0x15, 0x56, 0x3e,
  0xec, 0x9d, 0x51, 0x3e, 0x1b, 0x5a, 0x43, 0xbc, 0xde, 0x67, 0xe8, 0x3b,
  0x64, 0xec, 0x23, 0xbe, 0x8a, 0xd6, 0x01, 0xbe, 0x35, 0xf5, 0x25, 0x3d,
  0xb5, 0xe4, 0x58, 0xbd, 0xb9, 0xb0, 0x18, 0x3e, 0xdb, 0x0c, 0x70, 0x3c,
  0xb5, 0xe2, 0x08, 0xbe, 0xf5, 0x05, 0xf4, 0xbe, 0x19, 0xcb, 0x52, 0xbf,
  0xcc, 0xd0, 0x54, 0x3e, 0x04, 0x52, 0xe8, 0x3e, 0x20, 0xb0, 0x1b, 0xbe,
  0x2d, 0xbf, 0xd0, 0xbd, 0x24, 0x10, 0xd9, 0x3e, 0x0e, 0x78, 0xd4, 0x3d,
  0x11, 0xeb, 0xd7, 0xbd, 0x6f, 0x99, 0xc2, 0xbe, 0x6b, 0xe0, 0x08, 0xbd,
  0xb3, 0x5f, 0x16, 0x3d, 0xd6, 0x15, 0x48, 0x3e, 0xb8, 0x40, 0x37, 0xbe,
  0x98, 0x26, 0x6e, 0xbc, 0x12, 0xc3, 0x17, 0x3f, 0x60, 0x78, 0xb7, 0xbe,
  0xf4, 0xb2, 0xdf, 0x3d, 0x80, 0x54, 0x99, 0x3e, 0x94, 0x46, 0xb4, 0x3e,
  0x6a, 0x8b, 0x3b, 0xbd, 0xf0, 0xba, 0x06, 0x3c, 0x77, 0x40, 0x21, 0x3f,
  0x23, 0xab, 0x91, 0x3e, 0x83, 0xab, 0xcf, 0x3d, 0x06, 0xa7, 0x39, 0x3e,
  0xdb, 0x6e, 0x18, 0x3e, 0x28, 0x5b, 0x3d, 0x3e, 0x2c, 0xcf, 0xb8, 0x3c,
  0x54, 0xca, 0x2e, 0xbe, 0xee, 0x7e, 0x3a, 0xbe, 0xe7, 0x76, 0xdb, 0x3e,
  0xbd, 0xa1, 0x2e, 0xbd, 0x48, 0xf5, 0xff, 0xbc, 0xb0, 0x39, 0x19, 0xbe,
  0x30, 0xde, 0x05, 0xbe, 0x08, 0x9c, 0xda, 0xbd, 0x40, 0x32, 0x2b, 0xbe,
  0x19, 0x6d, 0x4a, 0xbd, 0x10, 0x75, 0x69, 0xbd, 0x4c, 0xaf, 0xf1, 0x3d,
  0xff, 0x3f, 0xd1, 0x3b, 0x36, 0xdc, 0x03, 0xbd, 0x20, 0xdb, 0x51, 0xbe,
  0x69, 0xe9, 0x87, 0xbe, 0x12, 0xb3, 0x13, 0xbd, 0x48, 0xfe, 0x16, 0xbd,
  0xf9, 0x5c, 0x46, 0xbe, 0xb1, 0x18, 0x7a, 0xbd, 0x02, 0xcb, 0xb3, 0xbd,
  0x99, 0x97, 0x55, 0xbe, 0x75, 0x19, 0xf5, 0x3d, 0xeb, 0x13, 0x86, 0x3e,
  0x9a, 0x7c, 0x99, 0x3e, 0x8c, 0xbe, 0x2f, 0x3e, 0x2c, 0x45, 0x18, 0xbe,
  0x60, 0x94, 0x93, 0x3e, 0xd7, 0x80, 0xc2, 0xbe, 0xdd, 0xa7, 0x5a, 0xbd,
  0xad, 0x04, 0x4d, 0xbe, 0xe2, 0x59, 0xc0, 0xbd, 0xb2, 0xc8, 0x01, 0x3f,
  0xcf, 0x69, 0xa8, 0x3d, 0x58, 0x42, 0x64, 0x3c, 0xd5, 0xed, 0xfd, 0x3d,
  0x01, 0xa8, 0x44, 0xbe, 0x72, 0x83, 0x83, 0xbe, 0x9f, 0x91, 0x9f, 0x3c,
  0x58, 0xd7, 0xa9, 0x3e, 0xea, 0xb7, 0x7c, 0x3e, 0x72, 0x30, 0x8c, 0x3d,
  0x5f, 0xba, 0x20, 0xbd, 0xbd, 0x22, 0xce, 0xbe, 0x0d, 0xf9, 0x2f, 0xbe,
  0x6b, 0xee, 0x4a, 0xbd, 0xc1, 0x22, 0x6b, 0xbd, 0x6c, 0xe0, 0xaa, 0xbd,
  0xa7, 0x94, 0x38, 0x3f, 0xde, 0xb6, 0x4f, 0x3c, 0x2f, 0x89, 0xa1, 0xbd,
  0xf5, 0xb3, 0xf8, 0x3d, 0x65, 0x74, 0x97, 0xbe, 0x16, 0xc2, 0x63, 0xbe,
  0xe4, 0x83, 0xa8, 0xbd, 0x89, 0xf4, 0xab, 0x3e, 0xd7, 0x08, 0x66, 0xbe,
  0x33, 0xb8, 0x87, 0xbe, 0xbd, 0xe5, 0x1f, 0x3e, 0xe2, 0x71, 0xa5, 0xbe,
  0x5c, 0xac, 0x1d, 0xbe, 0xb2, 0xad, 0xdc, 0xbb, 0x3a, 0x63, 0x21, 0xbe,
  0x86, 0x5d, 0xcc, 0xbe, 0x0e, 0xaa, 0x88, 0x3e, 0xdd, 0xab, 0x2d, 0xba,
  0xd3, 0xef, 0xa1, 0xbe, 0xd8, 0x47, 0x24, 0xbd, 0x6a, 0xd2, 0xb0, 0x3c,
  0x86, 0x78, 0x41, 0x3e, 0x8f, 0xd7, 0xa6, 0xbe, 0x16, 0xf1, 0x82, 0xbe,
  0x2d, 0xda, 0x3b, 0xbf, 0xd3, 0xd2, 0xd8, 0xbe, 0x79, 0x9f, 0x06, 0x3f,
  0x76, 0x43, 0x88, 0xbe, 0x8f, 0x1b, 0x07, 0xbe, 0x37, 0x64, 0x6a, 0xbc,
  0x16, 0x47, 0xd8, 0xbe, 0xb3, 0x6d, 0x25, 0xbe, 0xe7, 0x79, 0x82, 0x3d,
  0xed, 0x09, 0x93, 0xbd, 0x4f, 0x90, 0x66, 0xbe, 0xf7, 0xfa, 0xcd, 0x3e,
  0x1e, 0xa6, 0x45, 0x3e, 0xcb, 0xf3, 0xb7, 0x3c, 0x77, 0x94, 0xbe, 0xbe,
  0xd6, 0xe3, 0xcc, 0xbe, 0x7e, 0xad, 0x21, 0xbf, 0xb1, 0x77, 0xe4, 0xbe,
  0x08, 0x49, 0x89, 0x3e, 0xbd, 0xef, 0x11, 0x3d, 0x61, 0xca, 0xd3, 0x3e,
  0x18, 0x79, 0x8d, 0xbc, 0x07, 0x17, 0xbe, 0xbe, 0x4a, 0x16, 0x5b, 0xbe,
  0xb3, 0xb2, 0x5e, 0x3f, 0x7d, 0x86, 0x67, 0x3c, 0x76, 0x78, 0x1b, 0x3b,
  0x6d, 0x9e, 0x51, 0x3e, 0x76, 0x1f, 0x66, 0xbe, 0xea, 0x25, 0x0c, 0x3e,
  0x8c, 0xe8, 0x00, 0xbf, 0xce, 0x91, 0x10, 0xbf, 0xa7, 0x45, 0x83, 0xbe,
  0x2a, 0x77, 0xa2, 0xbe, 0x26, 0x83, 0x06, 0x3e, 0x1b, 0x2a, 0x98, 0x3e,
  0x0f, 0xd5, 0xe2, 0x3e, 0x68, 0x03, 0xa2, 0x3d, 0x28, 0x82, 0x41, 0xbe,
  0xf8, 0xf3, 0x03, 0x3d, 0xba, 0xbc, 0x11, 0x3f, 0x25, 0xfc, 0xee, 0x3d,
  0x1b, 0xed, 0xe3, 0xbc, 0x74, 0xdc, 0x44, 0x3e, 0xd2, 0x40, 0x89, 0xbd,
  0xa3, 0xd0, 0x85, 0xbe, 0x8e, 0xa7, 0x2a, 0xbf, 0xd7, 0xed, 0x88, 0xbe,
  0xd2, 0x0d, 0xdc, 0x3d, 0x11, 0x59, 0x13, 0xbd, 0x85, 0xd8, 0x3a, 0xbe,
  0x8e, 0xcc, 0x10, 0x3e, 0xe8, 0x92, 0x07, 0x3f, 0x3d, 0x74, 0x0c, 0x3e,
  0x02, 0xe8, 0xbf, 0xbd, 0x7d, 0xed, 0xaf, 0xbc, 0x14, 0x34, 0x94, 0x3c,
  0xcd, 0xe1, 0xb5, 0x3d, 0x30, 0x80, 0xa7, 0xbe, 0x7a, 0x7f, 0xce, 0x3e,
  0xe6, 0x63, 0x90, 0xbe, 0xaf, 0x9e, 0x83, 0xbd, 0xc3, 0xfa, 0xb4, 0xbe,
  0xcf, 0x28, 0xcf, 0xbe, 0xf8, 0xe8, 0x70, 0x3e, 0x0e, 0x34, 0x68, 0x3e,
  0xb5, 0x24, 0x24, 0xbd, 0xaf, 0x56, 0xe5, 0x3e, 0x26, 0x5e, 0x2f, 0x3f,
  0xe5, 0x65, 0xe2, 0x3d, 0x68, 0x5e, 0x2f, 0xbe, 0x77, 0x07, 0x4c, 0xbd,
  0x2e, 0xdb, 0x84, 0x3e, 0x94, 0x2f, 0xdc, 0xbd, 0x2a, 0x6a, 0x51, 0xbc,
  0xcf, 0x0d, 0xa4, 0x3e, 0xb4, 0x49, 0x14, 0xbf, 0x48, 0xe2, 0xb2, 0xbd,
  0x09, 0xcc, 0xee, 0x3d, 0x24, 0xb0, 0x46, 0x3e, 0xc0, 0xe5, 0x86, 0x3e,
  0xda, 0xaf, 0x65, 0xbd, 0xab, 0x7f, 0x44, 0xbe, 0x49, 0xde, 0xb3, 0x3e,
  0x58, 0x37, 0x23, 0x3e, 0xa6, 0x06, 0xf1, 0x3d, 0xca, 0x3f, 0xf1, 0x3d,
  0x2e, 0xf4, 0xa4, 0xbe, 0xa3, 0xb5, 0xb0, 0xbd, 0x7e, 0x5c, 0x47, 0xbd,
  0xeb, 0x9f, 0x4c, 0xbe, 0xbc, 0x0a, 0x9f, 0x3d, 0x93, 0xc1, 0x32, 0xbe,
  0xd2, 0x2b, 0xb8, 0xbe, 0xe5, 0xa3, 0xd1, 0x3e, 0x92, 0xda, 0xc1, 0xb8,
  0xb2, 0x88, 0x6b, 0x3e, 0xda, 0xee, 0x50, 0x3e, 0xe8, 0xc9, 0x8f, 0xbe,
  0xd9, 0xe1, 0x31, 0x3e, 0x2b, 0xbb, 0x74, 0xbd, 0xc5, 0x7b, 0x55, 0x3c,
  0x3e, 0x07, 0xef, 0xbc, 0x5a, 0x9c, 0xad, 0xbd, 0x3d, 0x40, 0xaf, 0x3e,
  0x80, 0x4b, 0x56, 0x3e, 0x1f, 0x39, 0x71, 0xbf, 0x6b, 0x71, 0x8a, 0xbd,
  0x94, 0x8d, 0x9c, 0xbe, 0xe4, 0xa6, 0x08, 0x3f, 0xab, 0xff, 0x26, 0x3e,
  0xf4, 0x70, 0x6d, 0x3e, 0x5d, 0x23, 0x1e, 0x3e, 0x88, 0x71, 0xf6, 0x3e,
  0x11, 0xeb, 0x82, 0xbe, 0x5e, 0x50, 0x22, 0x3d, 0x47, 0x30, 0x2e, 0x3e,
  0x8c, 0x84, 0x9e, 0xbd, 0xdb, 0x14, 0x15, 0x3d, 0x6e, 0x2c, 0x6a, 0x3e,
  0xfc, 0x66, 0x61, 0xbc, 0x65, 0x08, 0xaa, 0xbd, 0x30, 0x2b, 0x2b, 0xbf,
  0xe9, 0x48, 0xa1, 0xbe, 0x85, 0xa0, 0xbc, 0xbb, 0x2b, 0x06, 0xdf, 0x3e,
  0x10, 0x4d, 0xc0, 0x3e, 0xc2, 0x35, 0x2f, 0x3e, 0xb8, 0xc0, 0x48, 0x3d,
  0x50, 0xcf, 0xbf, 0x3e, 0xaf, 0xa8, 0x3d, 0xbe, 0x7b, 0xe6, 0xa4, 0x3d,
  0xc0, 0x11, 0x8e, 0xbd, 0x13, 0x4b, 0x0c, 0xbe, 0x5f, 0x7d, 0x6e, 0xbe,
  0xf6, 0xac, 0x0f, 0x3f, 0xaa, 0xb7, 0xb2, 0xbd, 0xa3, 0xe6, 0xe1, 0xbd,
  0xd5, 0xd6, 0x4c, 0x3c, 0xea, 0x4a, 0xc6, 0xbd, 0xcd, 0xc8, 0x06, 0xbd,
  0x51, 0x32, 0xdb, 0x3e, 0xba, 0xf7, 0x84, 0x3d, 0x1b, 0x4f, 0x2d, 0x3e,
  0x1f, 0xbd, 0xb9, 0x3d, 0xa2, 0x16, 0x8f, 0x3e, 0xb7, 0x59, 0xd3, 0x3c,
  0x99, 0xac, 0xb6, 0x3a, 0x6c, 0xc6, 0xee, 0xbe, 0x64, 0xc2, 0x4f, 0x3c,
  0x4c, 0xf8, 0x0a, 0xbe, 0x98, 0x5c, 0x3f, 0x3e, 0xda, 0x57, 0x9f, 0xbd,
  0x4d, 0x95, 0xd4, 0xbd, 0x54, 0x6f, 0xc0, 0xb8, 0xa5, 0xe1, 0x34, 0xbe,
  0x83, 0xa3, 0x9f, 0x3c, 0x3a, 0x4e, 0xab, 0xbe, 0x56, 0x5b, 0x0c, 0xbf,
  0x4f, 0x0c, 0x8e, 0xbe, 0x90, 0x92, 0x14, 0xbe, 0x17, 0xbd, 0x61, 0xbd,
  0x46, 0x3a, 0xae, 0x3d, 0x23, 0x8b, 0x85, 0x3e, 0x74, 0x4c, 0xd8, 0x3d,
  0x4b, 0x48, 0xdc, 0x3d, 0x64, 0x1a, 0x45, 0xbd, 0x9e, 0xbc, 0xf9, 0xbe,
  0xde, 0xdb, 0x25, 0xbf, 0xec, 0x05, 0x25, 0xbe, 0x58, 0xe9, 0x3f, 0xbe,
  0xff, 0x13, 0x18, 0x3e, 0x19, 0x3c, 0x04, 0xbf, 0x5b, 0x8e, 0x96, 0xbe,
  0x05, 0xe0, 0x75, 0xbe, 0x50, 0x2c, 0x8b, 0xbe, 0x78, 0xf0, 0x8b, 0x3e,
  0xe4, 0x54, 0x17, 0xbe, 0xeb, 0x1a, 0x22, 0xbe, 0xf7, 0xee, 0xa0, 0x3e,
  0xfd, 0x74, 0x80, 0x3e, 0x2b, 0x43, 0xf5, 0x3d, 0xeb, 0x65, 0x5e, 0x3d,
  0xae, 0x54, 0x1d, 0xbf, 0xe5, 0x4a, 0xd9, 0x3e, 0x62, 0xf0, 0x8e, 0xbe,
  0x1d, 0x3a, 0x35, 0xbe, 0xbe, 0xd1, 0x50, 0x3e, 0xad, 0x26, 0x3c, 0xbe,
  0x64, 0xe2, 0x42, 0xbe, 0xd3, 0x46, 0x77, 0x3e, 0x5e, 0x0b, 0xee, 0x3d,
  0xf8, 0x3a, 0xc3, 0x3d, 0x6f, 0x55, 0x26, 0x3e, 0x0c, 0x0b, 0x51, 0xbe,
  0xaa, 0x98, 0xa0, 0x3d, 0xac, 0x88, 0x89, 0x3d, 0x33, 0xe5, 0x62, 0xbe,
  0xbc, 0x74, 0x03, 0xbe, 0x47, 0xc0, 0x39, 0xbf, 0xb6, 0x3c, 0x2a, 0x3f,
  0xea, 0x8d, 0x1f, 0xbd, 0x0a, 0x3d, 0x44, 0x3e, 0xb9, 0xdd, 0x90, 0xbc,
  0xd9, 0xaa, 0xa9, 0x3d, 0x42, 0x3d, 0x7a, 0x3d, 0x2e, 0xcc, 0x1d, 0x3e,
  0xc1, 0xfb, 0x01, 0x3e, 0xd3, 0xf0, 0x74, 0x3e, 0xa2, 0x30, 0x12, 0x3d,
  0x8f, 0xcd, 0x45, 0x3e, 0xb0, 0xb9, 0xcf, 0x3d, 0x6a, 0x09, 0xcd, 0xbe,
  0x15, 0x21, 0x2b, 0xbe, 0x64, 0xe1, 0x11, 0xbe, 0xa2, 0xc2, 0xea, 0xbe,
  0xa7, 0x74, 0xeb, 0xbd, 0x73, 0x66, 0xc3, 0x3d, 0x09, 0xaf, 0x08, 0x3b,
  0x85, 0x65, 0xe1, 0x3d, 0x08, 0x1e, 0x30, 0xbe, 0x57, 0x98, 0x9c, 0x3d,
  0x04, 0xfa, 0xd4, 0x3b, 0xad, 0x10, 0xf0, 0x3d, 0x35, 0xfb, 0x28, 0xbd,
  0x02, 0xd4, 0x9b, 0x3d, 0xda, 0x6c, 0xb1, 0xbd, 0xeb, 0x6e, 0x3e, 0x3e,
  0xc5, 0x24, 0x94, 0xbe, 0x73, 0x8d, 0x00, 0xbe, 0x0d, 0xd9, 0xa4, 0xbe,
  0xfb, 0x9e, 0x8a, 0xbe, 0x7c, 0xb5, 0x17, 0x3f, 0x0c, 0x3d, 0x13, 0x3e,
  0xce, 0xfe, 0xff, 0xbd, 0xf5, 0x22, 0xbb, 0xbe, 0xaf, 0x43, 0x1d, 0x3d,
  0x01, 0xe5, 0x37, 0xbd, 0xed, 0xb5, 0x44, 0x3e, 0x12, 0x63, 0x17, 0x3e,
  0x6c, 0x95, 0x5b, 0x3d, 0xd0, 0x48, 0x3a, 0x3d, 0x00, 0x94, 0xd4, 0xbe,
  0x12, 0x81, 0x6e, 0x3e, 0x39, 0x78, 0x8d, 0xbe, 0x36, 0x5d, 0xe6, 0x3d,
  0xc6, 0x1d, 0x54, 0xbd, 0x17, 0x9a, 0x38, 0x3e, 0xf9, 0x95, 0xc6, 0x3c,
  0x6c, 0x8d, 0x52, 0xbd, 0xac, 0xa0, 0x6d, 0xbc, 0x2e, 0xb0, 0xb7, 0x3d,
  0x12, 0x06, 0x97, 0xbd, 0x04, 0x50, 0xf5, 0xbd, 0xc3, 0x1b, 0x28, 0x3e,
  0x91, 0xb0, 0x96, 0x3e, 0x42, 0x09, 0x00, 0xbe, 0x0e, 0x6e, 0x07, 0x3e,
  0xb3, 0xba, 0x7a, 0xbd, 0xd4, 0x50, 0x83, 0x3e, 0x43, 0x6f, 0x2f, 0xbe,
  0x88, 0x56, 0x4a, 0xbe, 0x8d, 0x5d, 0x2e, 0xbe, 0xa1, 0xa5, 0x2f, 0x3e,
  0x7b, 0x7e, 0x19, 0x3e, 0x81, 0x09, 0xa7, 0xbd, 0xac, 0x17, 0x12, 0x3e,
  0x04, 0x9b, 0xa4, 0xbe, 0x6c, 0x21, 0x9d, 0xbe, 0xab, 0x0f, 0x81, 0xbd,
  0xd2, 0xa4, 0xa3, 0x3e, 0x21, 0x11, 0x4e, 0x3e, 0xf3, 0xb0, 0x5a, 0x3e,
  0xa8, 0x98, 0x14, 0x3e, 0xe5, 0xd0, 0x91, 0x3e, 0xd7, 0x30, 0xed, 0x3e,
  0xb7, 0x5f, 0xe5, 0xbe, 0x57, 0x78, 0x76, 0xbd, 0x1c, 0xf6, 0x85, 0xbd,
  0x7e, 0xdc, 0x15, 0x3e, 0xc4, 0xdc, 0x30, 0x3e, 0xb8, 0x9d, 0x12, 0xbd,
  0x4f, 0x9e, 0x68, 0x3d, 0x20, 0x6c, 0x91, 0xbd, 0x24, 0xfa, 0xc6, 0x3c,
  0x21, 0xab, 0x33, 0xbe, 0x8b, 0x81, 0xab, 0x3d, 0x6c, 0xfe, 0xde, 0x3e,
  0x3b, 0xa5, 0x68, 0x3e, 0xbe, 0xcb, 0x46, 0x3d, 0x60, 0x04, 0x9e, 0xbc,
  0x23, 0xf3, 0x9e, 0x3e, 0xa4, 0x2a, 0xe2, 0xbe, 0x4d, 0x3c, 0x4a, 0x3d,
  0x46, 0xa1, 0xd7, 0xbd, 0x46, 0x67, 0xdd, 0x3c, 0xdd, 0x48, 0x84, 0x3e,
  0x90, 0x36, 0xdb, 0x3c, 0x16, 0x8b, 0xeb, 0xbb, 0x62, 0x03, 0x59, 0xbe,
  0xed, 0x3e, 0xa1, 0x3d, 0x16, 0x71, 0x06, 0xbe, 0x42, 0x1b, 0x0b, 0x3e,
  0xe0, 0x6c, 0x6d, 0x3e, 0xd4, 0xfa, 0x11, 0x3e, 0x6b, 0xf1, 0xa1, 0x3e,
  0xc1, 0xae, 0xc2, 0xbd, 0x0f, 0xec, 0xf2, 0x3e, 0x7d, 0x26, 0x00, 0xbf,
  0xfa, 0x92, 0xb7, 0xbc, 0xd1, 0x64, 0x70, 0xbd, 0x87, 0x83, 0x20, 0x3e,
  0x52, 0x46, 0x8b, 0x3e, 0x05, 0xd9, 0x42, 0x3d, 0x55, 0x79, 0xb0, 0xbd,
  0x0a, 0x95, 0xc8, 0xbe, 0x81, 0x39, 0x8d, 0x3d, 0x44, 0xf7, 0xc7, 0x3d,
  0x60, 0xff, 0x21, 0xbe, 0xca, 0xd7, 0x82, 0x3e, 0x6e, 0x04, 0xa4, 0x3e,
  0x9d, 0x5d, 0xc6, 0x3e, 0x55, 0x4d, 0x98, 0x3d, 0x9e, 0x2e, 0xe8, 0xbe,
  0x91, 0xa1, 0x4a, 0xbf, 0xb0, 0xf2, 0xf7, 0x3c, 0x0b, 0x10, 0x46, 0xbe,
  0xcf, 0x31, 0x84, 0x3e, 0xfc, 0x5e, 0x5e, 0x3e, 0xe6, 0x32, 0x8d, 0x3c,
  0x3a, 0x04, 0x4f, 0xbd, 0xc1, 0x50, 0x15, 0xbf, 0x34, 0x14, 0x3a, 0xbe,
  0x75, 0xbd, 0xa0, 0x3e, 0x9a, 0xf8, 0x21, 0xbe, 0x70, 0xf4, 0x2f, 0xbd,
  0x30, 0x47, 0x15, 0xbf, 0x95, 0xb0, 0xe4, 0xbc, 0xac, 0x25, 0x6d, 0x3c,
  0x00, 0x7e, 0xb3, 0xbe, 0xaa, 0x0b, 0x70, 0xbf, 0x81, 0x6a, 0x89, 0xbd,
  0x10, 0x5c, 0xd7, 0x3c, 0xe6, 0x33, 0xa5, 0x3e, 0xc4, 0x22, 0x7e, 0x3e,
  0xd7, 0x77, 0x09, 0x3e, 0x56, 0xfc, 0xa7, 0x3c, 0xb9, 0xa5, 0x5f, 0xbe,
  0x7e, 0x26, 0xf9, 0xbe, 0x5c, 0x33, 0x84, 0x3e, 0x5c, 0x79, 0x77, 0xbd,
  0xa4, 0xdd, 0x25, 0xbf, 0x07, 0xdf, 0x0e, 0xbf, 0x95, 0x36, 0xf8, 0xbd,
  0xd5, 0xa9, 0x24, 0x3e, 0x09, 0xee, 0x5b, 0xbe, 0xf2, 0xed, 0x20, 0xbf,
  0x90, 0x3c, 0xfe, 0x3c, 0x60, 0x54, 0x59, 0xbd, 0x46, 0x95, 0xd4, 0x3e,
  0x4a, 0xf8, 0x88, 0x3e, 0xf6, 0x31, 0xba, 0x3d, 0x24, 0xdd, 0xfe, 0x3d,
  0x7b, 0x8f, 0x09, 0xbe, 0xb0, 0xbe, 0x0a, 0xbe, 0xae, 0xc3, 0x6e, 0x3e,
  0x29, 0xb4, 0x64, 0xbe, 0xdd, 0x4d, 0x08, 0xbf, 0xe4, 0x76, 0x4d, 0xbe,
  0x12, 0xd3, 0x07, 0xbd, 0x57, 0x32, 0x5a, 0x3e, 0x67, 0x4d, 0x51, 0xbe,
  0x71, 0x81, 0x26, 0xbe, 0xb3, 0x5b, 0x96, 0xbc, 0xf0, 0x40, 0xef, 0xbe,
  0xdc, 0x63, 0xda, 0x3d, 0x0c, 0x13, 0x7a, 0x3e, 0x69, 0x2a, 0xb3, 0x3d,
  0x31, 0xf6, 0x28, 0xbe, 0xde, 0xf4, 0xff, 0xff, 0x04, 0x00, 0x00, 0x00,
  0x08, 0x00, 0x00, 0x00, 0xff, 0xff, 0xff, 0xff, 0xe0, 0x00, 0x00, 0x00,
  0xf2, 0xf4, 0xff, 0xff, 0x04, 0x00, 0x00, 0x00, 0x10, 0x00, 0x00, 0x00,
  0xc6, 0x96, 0x3d, 0x3f, 0x15, 0x4d, 0x08, 0x3f, 0x68, 0x72, 0x47, 0xc0,
  0x97, 0x0b, 0x21, 0xc0, 0x0e, 0xf5, 0xff, 0xff, 0x04, 0x00, 0x00, 0x00,
  0x40, 0x00, 0x00, 0x00, 0x96, 0x3f, 0x82, 0x3f, 0xfe, 0xed, 0x20, 0xbe,
  0xe7, 0x17, 0x97, 0xbe, 0xb4, 0xd0, 0x51, 0x3f, 0x18, 0xd7, 0xb7, 0x3e,
  0x97, 0xc0, 0x80, 0xbe, 0x36, 0x81, 0xcf, 0x3e, 0xb9, 0xcd, 0xcf, 0xbf,
  0xb2, 0xb9, 0x04, 0xbf, 0x6f, 0x5d, 0x9f, 0xbf, 0xdc, 0xb6, 0xda, 0xbf,
  0xc1, 0x24, 0x80, 0xbf, 0x72, 0x29, 0x57, 0x3f, 0x89, 0xbc, 0x46, 0x3f,
  0x59, 0x9f, 0x8d, 0xbd, 0x3b, 0x8e, 0xb3, 0x3e, 0x5a, 0xf5, 0xff, 0xff,
  0x04, 0x00, 0x00, 0x00, 0x00, 0x08, 0x00, 0x00, 0xf5, 0x7b, 0x33, 0xbf,
  0xaa, 0x52, 0x36, 0xbe, 0x43, 0x3b, 0x68, 0xbe, 0x17, 0x07, 0xf4, 0xbe,
  0x58, 0x1b, 0x4e, 0xbf, 0xad, 0x04, 0x33, 0xbf, 0xeb, 0x50, 0xf8, 0x3d,
  0xf1, 0xcf, 0xc4, 0xbe, 0xa0, 0x48, 0xf2, 0xbe, 0xd2, 0x90, 0x96, 0x3d,
  0xa4, 0x92, 0x9a, 0x3e, 0x8b, 0x04, 0x5d, 0xbe, 0x3b, 0xaf, 0x62, 0xbf,
  0x31, 0x93, 0xf0, 0xbe, 0xd0, 0x31, 0xd2, 0x3c, 0xbd, 0xc5, 0xf7, 0x3d,
  0xc4, 0xbb, 0x23, 0xbe, 0x97, 0xf9, 0x23, 0x3d, 0x66, 0xbd, 0x08, 0xbe,
  0x79, 0x30, 0xa5, 0xbd, 0xd6, 0xd7, 0x32, 0xbe, 0xed, 0x8f, 0xde, 0xbd,
  0x24, 0x27, 0x9e, 0xbc, 0x17, 0x28, 0xe8, 0xbe, 0x38, 0x5d, 0x42, 0x3d,
  0xd8, 0x06, 0xc8, 0xbd, 0x2a, 0xa4, 0x20, 0xbe, 0x05, 0xd7, 0x46, 0xbd,
  0x45, 0x62, 0x94, 0x3d, 0xfb, 0xae, 0xdd, 0x3e, 0x2c, 0x15, 0x8a, 0xbd,
  0x7c, 0xc5, 0x65, 0x3d, 0x09, 0x34, 0x91, 0xbd, 0x8c, 0x7f, 0x59, 0x3e,
  0x79, 0x12, 0x74, 0x3d, 0x2e, 0x1a, 0xb1, 0x3e, 0xd5, 0x57, 0xad, 0xbd,
  0x8c, 0xe9, 0xbc, 0xbd, 0x12, 0xeb, 0x91, 0xbc, 0x6a, 0x41, 0x2d, 0xbd,
  0xb8, 0x45, 0xfc, 0x3c, 0xd3, 0xe7, 0x53, 0x3e, 0x1c, 0xc4, 0x19, 0x3e,
  0x82, 0xf3, 0x14, 0x3e, 0xf6, 0x5a, 0x15, 0x3f, 0xd0, 0x72, 0xd4, 0xbc,
  0x36, 0xa8, 0x02, 0xbe, 0x0e, 0x2f, 0xb0, 0xbe, 0x0e, 0x02, 0x3f, 0x3d,
  0x2a, 0x82, 0x6f, 0xbf, 0x10, 0x43, 0x18, 0xbe, 0xae, 0x86, 0xbc, 0xbd,
  0x80, 0x01, 0x5c, 0xbc, 0xba, 0xeb, 0xa5, 0xbc, 0x5b, 0x19, 0x85, 0xbe,
  0x47, 0xe4, 0x29, 0xbf, 0xb5, 0xde, 0x48, 0xbe, 0xf0, 0x57, 0x5c, 0xbf,
  0x11, 0xe2, 0xaa, 0xbe, 0x64, 0xe2, 0x56, 0xbe, 0xcb, 0x2d, 0x9e, 0xbe,
  0x46, 0xf9, 0x67, 0xbe, 0xf8, 0x17, 0xa1, 0x3d, 0xb7, 0x85, 0xbf, 0xbe,
  0x70, 0x31, 0xfa, 0xbd, 0x56, 0xe6, 0x02, 0xbf, 0x31, 0x71, 0x55, 0xbd,
  0xad, 0xe8, 0xc9, 0xbe, 0xf9, 0xee, 0x4d, 0x3d, 0xfb, 0xc0, 0x8d, 0xbe,
  0x98, 0xb7, 0x1d, 0xbe, 0x70, 0xbc, 0x47, 0xbf, 0x09, 0xa8, 0x56, 0xbe,
  0xb4, 0xeb, 0xfc, 0x3d, 0xbb, 0x40, 0xe0, 0xbf, 0xa6, 0x40, 0x9e, 0xbe,
  0x07, 0x76, 0x89, 0x3e, 0x70, 0xd9, 0x3c, 0xbe, 0x09, 0x8d, 0x15, 0xbe,
  0x90, 0xbe, 0x5d, 0x3e, 0xb6, 0xcd, 0x11, 0xbe, 0x8d, 0x12, 0xf8, 0xbe,
  0xe1, 0x50, 0x3c, 0x3e, 0xb5, 0xee, 0x28, 0xbf, 0x90, 0x4d, 0x5b, 0x3e,
  0x81, 0xeb, 0xc3, 0xbc, 0xa6, 0x62, 0xd0, 0x3c, 0x35, 0xf8, 0x2a, 0xbf,
  0xbc, 0xfd, 0xe0, 0xbb, 0x99, 0xd7, 0x52, 0x3d, 0x35, 0x90, 0x10, 0x3e,
  0x02, 0x34, 0xbc, 0xbe, 0x27, 0x41, 0x2b, 0xbf, 0x76, 0xa0, 0x40, 0x3d,
  0x7c, 0x9c, 0x11, 0x3c, 0x84, 0x1f, 0xb8, 0xbd, 0x0f, 0xd7, 0x55, 0xbe,
  0x2a, 0x03, 0x99, 0xbc, 0xc8, 0x80, 0xc3, 0x3e, 0xb8, 0x5a, 0x48, 0x3c,
  0xae, 0xce, 0xb0, 0xbe, 0x8c, 0xa6, 0xa9, 0xbe, 0x34, 0xd3, 0x6a, 0xbd,
  0x69, 0x79, 0xa0, 0xbc, 0x6a, 0xa5, 0xab, 0xbd, 0x6b, 0xf5, 0x32, 0xbe,
  0x93, 0x2d, 0x94, 0xbe, 0x75, 0xbd, 0x75, 0xbe, 0x76, 0xb8, 0xeb, 0xbe,
  0x2d, 0xbe, 0x9f, 0x3c, 0x86, 0x7a, 0x0b, 0xbd, 0x7d, 0x2d, 0xc3, 0xbd,
  0xf7, 0x57, 0x9d, 0x3d, 0xfd, 0x68, 0x7d, 0x3d, 0x68, 0x52, 0xcc, 0xbe,
  0x0d, 0x5e, 0x85, 0xbe, 0x18, 0x2c, 0xa5, 0xbe, 0x12, 0xd7, 0xe2, 0x3d,
  0x60, 0x8c, 0x15, 0xbd, 0x20, 0xd8, 0x88, 0xbd, 0x39, 0xe1, 0x42, 0xbb,
  0x9e, 0x0e, 0x2b, 0xbd, 0xfa, 0xaa, 0x9d, 0xbe, 0x2d, 0x00, 0xb5, 0x3d,
  0x12, 0x4b, 0x84, 0xbc, 0x38, 0x68, 0xc4, 0xbb, 0xc1, 0x76, 0xb9, 0xbc,
  0xdb, 0x81, 0x94, 0xbe, 0xa5, 0xd3, 0x8a, 0xbd, 0x6b, 0x29, 0xa6, 0x3d,
  0x2e, 0x24, 0x0a, 0x3f, 0x24, 0x0c, 0x56, 0x3d, 0x64, 0x54, 0xec, 0x3a,
  0x54, 0xe4, 0xbc, 0xbd, 0x56, 0xa3, 0x91, 0xbe, 0x10, 0x1f, 0x21, 0xbd,
  0x90, 0x88, 0x3c, 0xbb, 0xa5, 0x90, 0x0f, 0xbf, 0x4d, 0x87, 0x6b, 0xbe,
  0x93, 0xaa, 0xd0, 0xbe, 0xb4, 0xa5, 0xd0, 0x3e, 0xa0, 0x94, 0x35, 0xbb,
  0xc0, 0xf6, 0x1c, 0xbe, 0xd2, 0x73, 0x19, 0xbf, 0x7a, 0x11, 0xd3, 0x3c,
  0x94, 0x90, 0x99, 0xbd, 0x44, 0x2d, 0x89, 0xbe, 0x01, 0x1f, 0x6b, 0xbe,
  0x03, 0xb8, 0x30, 0xbd, 0x76, 0x18, 0xa7, 0x3d, 0xfd, 0x7c, 0x8a, 0xbd,
  0x9c, 0xc1, 0x70, 0xbe, 0x7c, 0x2f, 0x6b, 0x3c, 0x1c, 0x23, 0x50, 0xbe,
  0xf9, 0x5d, 0x81, 0xbe, 0xaf, 0x47, 0xde, 0xbc, 0xd6, 0x8e, 0xd1, 0xbd,
  0x44, 0x66, 0x44, 0x3d, 0x0d, 0xaa, 0x81, 0xbd, 0xf8, 0x87, 0xc7, 0xbd,
  0x4f, 0x35, 0x8b, 0xbe, 0x3c, 0xa3, 0x64, 0xbe, 0xf4, 0x6f, 0x18, 0xbe,
  0x70, 0xb1, 0xdc, 0x3c, 0x36, 0xbc, 0x83, 0xbe, 0xec, 0x7b, 0xa5, 0xbe,
  0x9a, 0x62, 0x6e, 0xbd, 0x18, 0xca, 0xba, 0x3e, 0x54, 0x0b, 0x61, 0xbe,
  0xfc, 0x4f, 0x8d, 0xbd, 0x0a, 0x8e, 0xe2, 0x3e, 0xb9, 0x00, 0xfd, 0x3d,
  0xc5, 0xeb, 0x49, 0xbe, 0x80, 0x95, 0x54, 0xbe, 0xcc, 0xf8, 0x1f, 0x3d,
  0xf8, 0x59, 0xef, 0x3c, 0x33, 0xa6, 0x52, 0xbd, 0x97, 0xb7, 0x9f, 0x3e,
  0x73, 0x94, 0x66, 0xbd, 0xe0, 0x0f, 0x4a, 0x3e, 0xfa, 0x83, 0x85, 0x3d,
  0xed, 0xea, 0xdf, 0xbd, 0xe3, 0xd6, 0xf7, 0x3b, 0xa5, 0xf8, 0x7c, 0xbd,
